{
  "version": "1.0",
  "truncation": null,
  "padding": null,
  "added_tokens": [
    {
      "id": 0,
      "content": "[UNK]",
      "single_word": false,
      "lstrip": false,
      "rstrip": false,
      "normalized": false,
      "special": true
    },
    {
      "id": 1,
      "content": "[CLS]",
      "single_word": false,
      "lstrip": false,
      "rstrip": false,
      "normalized": false,
      "special": true
    },
    {
      "id": 2,
      "content": "[SEP]",
      "single_word": false,
      "lstrip": false,
      "rstrip": false,
      "normalized": false,
      "special": true
    },
    {
      "id": 3,
      "content": "[PAD]",
      "single_word": false,
      "lstrip": false,
      "rstrip": false,
      "normalized": false,
      "special": true
    },
    {
      "id": 4,
      "content": "[MASK]",
      "single_word": false,
      "lstrip": false,
      "rstrip": false,
      "normalized": false,
      "special": true
    }
  ],
  "normalizer": null,
  "pre_tokenizer": {
    "type": "Whitespace"
  },
  "post_processor": null,
  "decoder": null,
  "model": {
    "type": "BPE",
    "dropout": null,
    "unk_token": "[UNK]",
    "continuing_subword_prefix": null,
    "end_of_word_suffix": null,
    "fuse_unk": false,
    "byte_fallback": false,
    "ignore_merges": false,
    "vocab": {
      "[UNK]": 0,
      "[CLS]": 1,
      "[SEP]": 2,
      "[PAD]": 3,
      "[MASK]": 4,
      "!": 5,
      "\"": 6,
      "$": 7,
      "%": 8,
      "&": 9,
      "'": 10,
      "(": 11,
      ")": 12,
      ",": 13,
      "-": 14,
      ".": 15,
      "/": 16,
      "0": 17,
      "1": 18,
      "2": 19,
      "3": 20,
      "4": 21,
      "5": 22,
      "6": 23,
      "7": 24,
      "8": 25,
      "9": 26,
      ":": 27,
      ";": 28,
      ">": 29,
      "?": 30,
      "[": 31,
      "]": 32,
      "`": 33,
      "a": 34,
      "b": 35,
      "c": 36,
      "d": 37,
      "e": 38,
      "f": 39,
      "g": 40,
      "h": 41,
      "i": 42,
      "j": 43,
      "k": 44,
      "l": 45,
      "m": 46,
      "n": 47,
      "o": 48,
      "p": 49,
      "q": 50,
      "r": 51,
      "s": 52,
      "t": 53,
      "u": 54,
      "v": 55,
      "w": 56,
      "x": 57,
      "y": 58,
      "z": 59,
      "|": 60,
      "£": 61,
      "…": 62,
      "€": 63,
      "th": 64,
      "an": 65,
      "in": 66,
      "re": 67,
      "to": 68,
      "my": 69,
      "on": 70,
      "ou": 71,
      "at": 72,
      "the": 73,
      "ar": 74,
      "ed": 75,
      "is": 76,
      "en": 77,
      "wh": 78,
      "as": 79,
      "er": 80,
      "ing": 81,
      "it": 82,
      "ard": 83,
      "card": 84,
      "or": 85,
      "ch": 86,
      "tr": 87,
      "ac": 88,
      "ow": 89,
      "can": 90,
      "do": 91,
      "me": 92,
      "ge": 93,
      "le": 94,
      "how": 95,
      "tran": 96,
      "ll": 97,
      "oun": 98,
      "ent": 99,
      "trans": 100,
      "one": 101,
      "ay": 102,
      "wi": 103,
      "for": 104,
      "up": 105,
      "ve": 106,
      "st": 107,
      "acc": 108,
      "de": 109,
      "ount": 110,
      "what": 111,
      "se": 112,
      "be": 113,
      "you": 114,
      "ot": 115,
      "fer": 116,
      "al": 117,
      "transfer": 118,
      "ha": 119,
      "account": 120,
      "why": 121,
      "and": 122,
      "es": 123,
      "top": 124,
      "ex": 125,
      "ne": 126,
      "id": 127,
      "with": 128,
      "ro": 129,
      "ti": 130,
      "was": 131,
      "ke": 132,
      "ce": 133,
      "mone": 134,
      "money": 135,
      "not": 136,
      "ment": 137,
      "pay": 138,
      "have": 139,
      "so": 140,
      "get": 141,
      "that": 142,
      "chan": 143,
      "if": 144,
      "pp": 145,
      "there": 146,
      "char": 147,
      "ate": 148,
      "ld": 149,
      "ur": 150,
      "ver": 151,
      "ma": 152,
      "ble": 153,
      "this": 154,
      "ut": 155,
      "change": 156,
      "payment": 157,
      "un": 158,
      "need": 159,
      "of": 160,
      "ple": 161,
      "fe": 162,
      "li": 163,
      "app": 164,
      "ould": 165,
      "am": 166,
      "gh": 167,
      "did": 168,
      "but": 169,
      "po": 170,
      "ong": 171,
      "cas": 172,
      "cash": 173,
      "go": 174,
      "us": 175,
      "some": 176,
      "rom": 177,
      "from": 178,
      "acti": 179,
      "ase": 180,
      "are": 181,
      "ere": 182,
      "end": 183,
      "co": 184,
      "pos": 185,
      "ta": 186,
      "ged": 187,
      "exchange": 188,
      "ren": 189,
      "has": 190,
      "aw": 191,
      "und": 192,
      "ic": 193,
      "use": 194,
      "now": 195,
      "atm": 196,
      "withd": 197,
      "charged": 198,
      "wor": 199,
      "out": 200,
      "ough": 201,
      "fund": 202,
      "please": 203,
      "raw": 204,
      "he": 205,
      "withdraw": 206,
      "able": 207,
      "when": 208,
      "where": 209,
      "work": 210,
      "ad": 211,
      "cur": 212,
      "lin": 213,
      "lo": 214,
      "will": 215,
      "action": 216,
      "fee": 217,
      "curren": 218,
      "ct": 219,
      "transaction": 220,
      "ion": 221,
      "any": 222,
      "show": 223,
      "been": 224,
      "ck": 225,
      "ending": 226,
      "pending": 227,
      "te": 228,
      "ly": 229,
      "currenc": 230,
      "all": 231,
      "che": 232,
      "see": 233,
      "does": 234,
      "ir": 235,
      "long": 236,
      "rece": 237,
      "recei": 238,
      "charge": 239,
      "ill": 240,
      "ter": 241,
      "would": 242,
      "thing": 243,
      "ant": 244,
      "lp": 245,
      "help": 246,
      "ied": 247,
      "verif": 248,
      "pin": 249,
      "day": 250,
      "take": 251,
      "ore": 252,
      "still": 253,
      "dis": 254,
      "dec": 255,
      "red": 256,
      "ation": 257,
      "new": 258,
      "declin": 259,
      "made": 260,
      "make": 261,
      "want": 262,
      "ri": 263,
      "didn": 264,
      "rate": 265,
      "ep": 266,
      "tu": 267,
      "know": 268,
      "pro": 269,
      "ved": 270,
      "don": 271,
      "qu": 272,
      "exp": 273,
      "wr": 274,
      "withdrawal": 275,
      "got": 276,
      "ye": 277,
      "refund": 278,
      "wrong": 279,
      "check": 280,
      "ted": 281,
      "il": 282,
      "declined": 283,
      "cards": 284,
      "tra": 285,
      "ies": 286,
      "thr": 287,
      "ident": 288,
      "tual": 289,
      "su": 290,
      "through": 291,
      "ust": 292,
      "time": 293,
      "rect": 294,
      "like": 295,
      "vir": 296,
      "virtual": 297,
      "sh": 298,
      "ity": 299,
      "add": 300,
      "tried": 301,
      "ab": 302,
      "ss": 303,
      "tell": 304,
      "cance": 305,
      "using": 306,
      "extra": 307,
      "just": 308,
      "au": 309,
      "mu": 310,
      "identity": 311,
      "dispos": 312,
      "yet": 313,
      "disposable": 314,
      "si": 315,
      "fin": 316,
      "ack": 317,
      "ess": 318,
      "should": 319,
      "pur": 320,
      "state": 321,
      "something": 322,
      "statement": 323,
      "ank": 324,
      "your": 325,
      "ting": 326,
      "currencies": 327,
      "purch": 328,
      "verify": 329,
      "currency": 330,
      "showing": 331,
      "we": 332,
      "ph": 333,
      "whi": 334,
      "received": 335,
      "bank": 336,
      "con": 337,
      "about": 338,
      "funds": 339,
      "que": 340,
      "amount": 341,
      "working": 342,
      "fore": 343,
      "going": 344,
      "someone": 345,
      "com": 346,
      "activ": 347,
      "ther": 348,
      "ok": 349,
      "thin": 350,
      "depos": 351,
      "ally": 352,
      "think": 353,
      "deposit": 354,
      "hasn": 355,
      "try": 356,
      "ame": 357,
      "gn": 358,
      "isn": 359,
      "ought": 360,
      "back": 361,
      "possi": 362,
      "find": 363,
      "cor": 364,
      "cancel": 365,
      "ail": 366,
      "ago": 367,
      "ite": 368,
      "other": 369,
      "correct": 370,
      "more": 371,
      "possible": 372,
      "der": 373,
      "sto": 374,
      "into": 375,
      "accep": 376,
      "by": 377,
      "used": 378,
      "ass": 379,
      "mit": 380,
      "happ": 381,
      "getting": 382,
      "bit": 383,
      "ance": 384,
      "fi": 385,
      "ven": 386,
      "much": 387,
      "ght": 388,
      "could": 389,
      "transfers": 390,
      "receive": 391,
      "ait": 392,
      "limit": 393,
      "code": 394,
      "pe": 395,
      "debit": 396,
      "purchase": 397,
      "cess": 398,
      "topp": 399,
      "very": 400,
      "fees": 401,
      "wait": 402,
      "happen": 403,
      "por": 404,
      "sup": 405,
      "order": 406,
      "rec": 407,
      "sent": 408,
      "ication": 409,
      "ze": 410,
      "seem": 411,
      "ain": 412,
      "ear": 413,
      "vis": 414,
      "op": 415,
      "way": 416,
      "rever": 417,
      "ary": 418,
      "ound": 419,
      "chin": 420,
      "times": 421,
      "activate": 422,
      "mb": 423,
      "wee": 424,
      "reas": 425,
      "week": 426,
      "age": 427,
      "bal": 428,
      "tion": 429,
      "auto": 430,
      "balance": 431,
      "aster": 432,
      "di": 433,
      "coun": 434,
      "ect": 435,
      "look": 436,
      "verification": 437,
      "comple": 438,
      "mber": 439,
      "fre": 440,
      "our": 441,
      "reason": 442,
      "af": 443,
      "lock": 444,
      "days": 445,
      "right": 446,
      "item": 447,
      "won": 448,
      "ated": 449,
      "let": 450,
      "keep": 451,
      "come": 452,
      "lost": 453,
      "which": 454,
      "gi": 455,
      "vi": 456,
      "before": 457,
      "sure": 458,
      "master": 459,
      "direct": 460,
      "today": 461,
      "phone": 462,
      "mastercard": 463,
      "after": 464,
      "dif": 465,
      "pass": 466,
      "put": 467,
      "ys": 468,
      "bought": 469,
      "ca": 470,
      "old": 471,
      "ress": 472,
      "process": 473,
      "many": 474,
      "rent": 475,
      "cred": 476,
      "len": 477,
      "tail": 478,
      "credit": 479,
      "per": 480,
      "than": 481,
      "ast": 482,
      "visa": 483,
      "pl": 484,
      "another": 485,
      "read": 486,
      "they": 487,
      "detail": 488,
      "being": 489,
      "cheque": 490,
      "eu": 491,
      "mo": 492,
      "arri": 493,
      "form": 494,
      "stolen": 495,
      "mis": 496,
      "details": 497,
      "mor": 498,
      "say": 499,
      "deli": 500,
      "set": 501,
      "hi": 502,
      "king": 503,
      "transactions": 504,
      "fail": 505,
      "accept": 506,
      "blem": 507,
      "payments": 508,
      "problem": 509,
      "suppor": 510,
      "block": 511,
      "no": 512,
      "quest": 513,
      "ready": 514,
      "doesn": 515,
      "diffe": 516,
      "already": 517,
      "while": 518,
      "free": 519,
      "cause": 520,
      "im": 521,
      "ving": 522,
      "haven": 523,
      "trying": 524,
      "fri": 525,
      "ire": 526,
      "ize": 527,
      "charges": 528,
      "friend": 529,
      "min": 530,
      "reco": 531,
      "transferred": 532,
      "cancell": 533,
      "cou": 534,
      "had": 535,
      "cost": 536,
      "shows": 537,
      "couple": 538,
      "fic": 539,
      "ning": 540,
      "phys": 541,
      "different": 542,
      "recogn": 543,
      "physic": 544,
      "request": 545,
      "allow": 546,
      "expl": 547,
      "gone": 548,
      "nu": 549,
      "less": 550,
      "cont": 551,
      "physical": 552,
      "went": 553,
      "explain": 554,
      "plac": 555,
      "number": 556,
      "recent": 557,
      "issu": 558,
      "give": 559,
      "fici": 560,
      "waiting": 561,
      "purchas": 562,
      "reverted": 563,
      "cancelled": 564,
      "because": 565,
      "apple": 566,
      "over": 567,
      "upd": 568,
      "ates": 569,
      "morning": 570,
      "inform": 571,
      "ign": 572,
      "pa": 573,
      "topping": 574,
      "contac": 575,
      "ene": 576,
      "machin": 577,
      "av": 578,
      "foreign": 579,
      "bene": 580,
      "here": 581,
      "pound": 582,
      "twi": 583,
      "ouble": 584,
      "seems": 585,
      "twice": 586,
      "ser": 587,
      "same": 588,
      "ure": 589,
      "inter": 590,
      "line": 591,
      "passcode": 592,
      "benefici": 593,
      "send": 594,
      "ret": 595,
      "goo": 596,
      "expire": 597,
      "bp": 598,
      "gbp": 599,
      "lier": 600,
      "euro": 601,
      "avail": 602,
      "earlier": 603,
      "available": 604,
      "online": 605,
      "ups": 606,
      "access": 607,
      "notic": 608,
      "deposited": 609,
      "says": 610,
      "every": 611,
      "recognize": 612,
      "information": 613,
      "ty": 614,
      "ition": 615,
      "noticed": 616,
      "tries": 617,
      "happened": 618,
      "failed": 619,
      "beneficiary": 620,
      "rates": 621,
      "ster": 622,
      "expect": 623,
      "complete": 624,
      "uk": 625,
      "thought": 626,
      "only": 627,
      "urn": 628,
      "yester": 629,
      "sin": 630,
      "lic": 631,
      "addition": 632,
      "country": 633,
      "yesterday": 634,
      "since": 635,
      "mp": 636,
      "tw": 637,
      "incorrect": 638,
      "ller": 639,
      "seller": 640,
      "fix": 641,
      "last": 642,
      "mer": 643,
      "really": 644,
      "never": 645,
      "few": 646,
      "hell": 647,
      "checked": 648,
      "topped": 649,
      "europe": 650,
      "two": 651,
      "issue": 652,
      "contact": 653,
      "additional": 654,
      "may": 655,
      "wasn": 656,
      "requested": 657,
      "hello": 658,
      "cer": 659,
      "den": 660,
      "fir": 661,
      "ging": 662,
      "hold": 663,
      "ror": 664,
      "error": 665,
      "ste": 666,
      "support": 667,
      "changed": 668,
      "atms": 669,
      "lti": 670,
      "too": 671,
      "dele": 672,
      "appear": 673,
      "link": 674,
      "ring": 675,
      "sing": 676,
      "sour": 677,
      "though": 678,
      "place": 679,
      "fr": 680,
      "mat": 681,
      "multi": 682,
      "machine": 683,
      "multiple": 684,
      "el": 685,
      "ken": 686,
      "who": 687,
      "mess": 688,
      "ately": 689,
      "tain": 690,
      "countries": 691,
      "return": 692,
      "source": 693,
      "done": 694,
      "ist": 695,
      "eri": 696,
      "step": 697,
      "lied": 698,
      "loc": 699,
      "open": 700,
      "arrived": 701,
      "delete": 702,
      "hour": 703,
      "applied": 704,
      "allowed": 705,
      "son": 706,
      "ul": 707,
      "paid": 708,
      "gle": 709,
      "its": 710,
      "vered": 711,
      "soon": 712,
      "option": 713,
      "china": 714,
      "google": 715,
      "stand": 716,
      "vice": 717,
      "purchased": 718,
      "bu": 719,
      "double": 720,
      "med": 721,
      "nation": 722,
      "transferring": 723,
      "road": 724,
      "express": 725,
      "delivered": 726,
      "internation": 727,
      "contactless": 728,
      "message": 729,
      "steps": 730,
      "found": 731,
      "ject": 732,
      "temp": 733,
      "buy": 734,
      "00": 735,
      "ameri": 736,
      "abroad": 737,
      "international": 738,
      "american": 739,
      "ho": 740,
      "ry": 741,
      "sal": 742,
      "reject": 743,
      "attemp": 744,
      "them": 745,
      "track": 746,
      "unblock": 747,
      "cond": 748,
      "accepted": 749,
      "mine": 750,
      "salary": 751,
      "ft": 752,
      "were": 753,
      "second": 754,
      "ared": 755,
      "under": 756,
      "weeks": 757,
      "person": 758,
      "recently": 759,
      "came": 760,
      "sever": 761,
      "changing": 762,
      "making": 763,
      "ically": 764,
      "service": 765,
      "everything": 766,
      "several": 767,
      "bo": 768,
      "gent": 769,
      "res": 770,
      "rew": 771,
      "ask": 772,
      "taking": 773,
      "name": 774,
      "urgent": 775,
      "unable": 776,
      "anything": 777,
      "automat": 778,
      "completed": 779,
      "clo": 780,
      "ating": 781,
      "these": 782,
      "wanted": 783,
      "aud": 784,
      "keeps": 785,
      "update": 786,
      "saw": 787,
      "having": 788,
      "without": 789,
      "needs": 790,
      "arrive": 791,
      "missing": 792,
      "first": 793,
      "ten": 794,
      "thor": 795,
      "dered": 796,
      "assist": 797,
      "rejected": 798,
      "eve": 799,
      "even": 800,
      "withdrew": 801,
      "author": 802,
      "ag": 803,
      "cannot": 804,
      "exchanges": 805,
      "trave": 806,
      "else": 807,
      "asked": 808,
      "wal": 809,
      "ous": 810,
      "off": 811,
      "blocked": 812,
      "immed": 813,
      "immedi": 814,
      "dau": 815,
      "ose": 816,
      "doing": 817,
      "ghter": 818,
      "ick": 819,
      "comp": 820,
      "mistake": 821,
      "certain": 822,
      "close": 823,
      "daughter": 824,
      "dup": 825,
      "ordered": 826,
      "mean": 827,
      "exchanging": 828,
      "fiat": 829,
      "reci": 830,
      "tions": 831,
      "supported": 832,
      "wallet": 833,
      "duplic": 834,
      "eared": 835,
      "pre": 836,
      "sy": 837,
      "reset": 838,
      "appeared": 839,
      "fig": 840,
      "delivery": 841,
      "freeze": 842,
      "immediately": 843,
      "stem": 844,
      "automatically": 845,
      "system": 846,
      "ach": 847,
      "ga": 848,
      "ref": 849,
      "reme": 850,
      "worked": 851,
      "verified": 852,
      "understand": 853,
      "requ": 854,
      "took": 855,
      "ish": 856,
      "longer": 857,
      "verifying": 858,
      "gave": 859,
      "iz": 860,
      "mon": 861,
      "ull": 862,
      "beli": 863,
      "added": 864,
      "address": 865,
      "pounds": 866,
      "travel": 867,
      "fo": 868,
      "uct": 869,
      "withdrawing": 870,
      "shown": 871,
      "expires": 872,
      "cle": 873,
      "cry": 874,
      "actu": 875,
      "posed": 876,
      "current": 877,
      "disput": 878,
      "limits": 879,
      "month": 880,
      "believe": 881,
      "bro": 882,
      "spe": 883,
      "once": 884,
      "chant": 885,
      "gotten": 886,
      "moved": 887,
      "merchant": 888,
      "hours": 889,
      "actually": 890,
      "20": 891,
      "gu": 892,
      "pto": 893,
      "stop": 894,
      "int": 895,
      "bet": 896,
      "sol": 897,
      "seeing": 898,
      "quick": 899,
      "side": 900,
      "supposed": 901,
      "updated": 902,
      "european": 903,
      "returned": 904,
      "again": 905,
      "figure": 906,
      "crypto": 907,
      "cho": 908,
      "til": 909,
      "live": 910,
      "store": 911,
      "looking": 912,
      "move": 913,
      "remember": 914,
      "dispute": 915,
      "ap": 916,
      "ient": 917,
      "ight": 918,
      "stran": 919,
      "swi": 920,
      "ind": 921,
      "atus": 922,
      "tric": 923,
      "stu": 924,
      "status": 925,
      "paying": 926,
      "port": 927,
      "looks": 928,
      "appears": 929,
      "personal": 930,
      "both": 931,
      "duplicate": 932,
      "bus": 933,
      "ild": 934,
      "ired": 935,
      "must": 936,
      "atch": 937,
      "child": 938,
      "own": 939,
      "until": 940,
      "appro": 941,
      "anywhere": 942,
      "disc": 943,
      "withdrawals": 944,
      "happening": 945,
      "friends": 946,
      "restric": 947,
      "ized": 948,
      "strange": 949,
      "imu": 950,
      "od": 951,
      "pient": 952,
      "sat": 953,
      "watch": 954,
      "lect": 955,
      "needed": 956,
      "offer": 957,
      "word": 958,
      "disappeared": 959,
      "shouldn": 960,
      "coming": 961,
      "couldn": 962,
      "attempted": 963,
      "swift": 964,
      "restrictions": 965,
      "imum": 966,
      "100": 967,
      "cus": 968,
      "date": 969,
      "ried": 970,
      "sa": 971,
      "vic": 972,
      "asap": 973,
      "seen": 974,
      "wouldn": 975,
      "password": 976,
      "discount": 977,
      "sp": 978,
      "rest": 979,
      "tomer": 980,
      "iday": 981,
      "refunded": 982,
      "ween": 983,
      "activating": 984,
      "stole": 985,
      "wonder": 986,
      "company": 987,
      "recipient": 988,
      "spec": 989,
      "between": 990,
      "customer": 991,
      "cu": 992,
      "might": 993,
      "nor": 994,
      "sw": 995,
      "usd": 996,
      "taken": 997,
      "checking": 998,
      "typ": 999,
      "broken": 1000,
      "wondering": 1001,
      "fl": 1002,
      "liday": 1003,
      "reactivate": 1004,
      "then": 1005,
      "art": 1006,
      "ise": 1007,
      "defin": 1008,
      "post": 1009,
      "sud": 1010,
      "purchases": 1011,
      "servic": 1012,
      "denied": 1013,
      "holding": 1014,
      "holiday": 1015,
      "choose": 1016,
      "definite": 1017,
      "services": 1018,
      "reach": 1019,
      "trouble": 1020,
      "sepa": 1021,
      "max": 1022,
      "mail": 1023,
      "anymore": 1024,
      "receiving": 1025,
      "declining": 1026,
      "identif": 1027,
      "adding": 1028,
      "okay": 1029,
      "high": 1030,
      "nothing": 1031,
      "specif": 1032,
      "sudden": 1033,
      "definitely": 1034,
      "aur": 1035,
      "kind": 1036,
      "past": 1037,
      "ue": 1038,
      "val": 1039,
      "info": 1040,
      "replace": 1041,
      "ments": 1042,
      "ered": 1043,
      "things": 1044,
      "quent": 1045,
      "frequent": 1046,
      "saying": 1047,
      "location": 1048,
      "traveling": 1049,
      "stuck": 1050,
      "busin": 1051,
      "restaur": 1052,
      "restaurant": 1053,
      "..": 1054,
      "eur": 1055,
      "pt": 1056,
      "real": 1057,
      "docu": 1058,
      "entered": 1059,
      "ext": 1060,
      "decline": 1061,
      "prove": 1062,
      "expir": 1063,
      "sub": 1064,
      "clear": 1065,
      "quickly": 1066,
      "!!": 1067,
      "ever": 1068,
      "full": 1069,
      "ide": 1070,
      "sed": 1071,
      "inste": 1072,
      "ord": 1073,
      "forgot": 1074,
      "provi": 1075,
      "ways": 1076,
      "revert": 1077,
      "most": 1078,
      "fraud": 1079,
      "guys": 1080,
      "instead": 1081,
      "provide": 1082,
      "reg": 1083,
      "resol": 1084,
      "edit": 1085,
      "didnt": 1086,
      "happens": 1087,
      "processed": 1088,
      "cre": 1089,
      "fast": 1090,
      "ful": 1091,
      "land": 1092,
      "left": 1093,
      "pping": 1094,
      "mall": 1095,
      "usu": 1096,
      "termin": 1097,
      "sho": 1098,
      "well": 1099,
      "machines": 1100,
      "good": 1101,
      "expected": 1102,
      "urgently": 1103,
      "authorized": 1104,
      "reflect": 1105,
      "flat": 1106,
      "maximum": 1107,
      "suddenly": 1108,
      "30": 1109,
      "??": 1110,
      "ccess": 1111,
      "ction": 1112,
      "lf": 1113,
      "lar": 1114,
      "ob": 1115,
      "accounts": 1116,
      "away": 1117,
      "success": 1118,
      "children": 1119,
      "sending": 1120,
      "actual": 1121,
      "deal": 1122,
      "self": 1123,
      "also": 1124,
      "polic": 1125,
      "fine": 1126,
      "activated": 1127,
      "happy": 1128,
      "given": 1129,
      "home": 1130,
      "10": 1131,
      "fun": 1132,
      "ive": 1133,
      "ru": 1134,
      "remove": 1135,
      "tri": 1136,
      "doll": 1137,
      "apply": 1138,
      "point": 1139,
      "aware": 1140,
      "hey": 1141,
      "withdrawn": 1142,
      "required": 1143,
      "said": 1144,
      "dollar": 1145,
      "duct": 1146,
      "next": 1147,
      "par": 1148,
      "sion": 1149,
      "ts": 1150,
      "report": 1151,
      "acation": 1152,
      "stay": 1153,
      "uring": 1154,
      "unauthorized": 1155,
      "product": 1156,
      "dont": 1157,
      "confir": 1158,
      "activation": 1159,
      "overcharged": 1160,
      "type": 1161,
      "authorize": 1162,
      "require": 1163,
      "specific": 1164,
      "shopping": 1165,
      "function": 1166,
      "ded": 1167,
      "ice": 1168,
      "lis": 1169,
      "lord": 1170,
      "ople": 1171,
      "she": 1172,
      "stopped": 1173,
      "vacation": 1174,
      "myself": 1175,
      "ised": 1176,
      "enough": 1177,
      "however": 1178,
      "accident": 1179,
      "always": 1180,
      "exchanged": 1181,
      "works": 1182,
      "receiver": 1183,
      "people": 1184,
      "reversed": 1185,
      "items": 1186,
      "contacted": 1187,
      "approved": 1188,
      "locations": 1189,
      "landlord": 1190,
      "large": 1191,
      "dy": 1192,
      "fam": 1193,
      "kes": 1194,
      "kid": 1195,
      "mar": 1196,
      "ned": 1197,
      "ran": 1198,
      "start": 1199,
      "ket": 1200,
      "urday": 1201,
      "goes": 1202,
      "withdrawl": 1203,
      "prog": 1204,
      "canceled": 1205,
      "vious": 1206,
      "failing": 1207,
      "recognise": 1208,
      "places": 1209,
      "located": 1210,
      "tracking": 1211,
      "saturday": 1212,
      "documents": 1213,
      "submit": 1214,
      "resolve": 1215,
      "listed": 1216,
      "fami": 1217,
      "kids": 1218,
      "bill": 1219,
      "ced": 1220,
      "during": 1221,
      "far": 1222,
      "gged": 1223,
      "hot": 1224,
      "man": 1225,
      "pret": 1226,
      "inst": 1227,
      "told": 1228,
      "whats": 1229,
      "topup": 1230,
      "within": 1231,
      "fered": 1232,
      "worried": 1233,
      "known": 1234,
      "vie": 1235,
      "deliver": 1236,
      "problems": 1237,
      "buying": 1238,
      "body": 1239,
      "assistance": 1240,
      "identification": 1241,
      "business": 1242,
      "create": 1243,
      "usually": 1244,
      "obtain": 1245,
      "successful": 1246,
      "hotel": 1247,
      "pretty": 1248,
      "18": 1249,
      "cl": 1250,
      "her": 1251,
      "mal": 1252,
      "pull": 1253,
      "ra": 1254,
      "row": 1255,
      "isf": 1256,
      "enter": 1257,
      "seas": 1258,
      "kept": 1259,
      "somebody": 1260,
      "aren": 1261,
      "quite": 1262,
      "checks": 1263,
      "conver": 1264,
      "placed": 1265,
      "overseas": 1266,
      "france": 1267,
      "options": 1268,
      "previous": 1269,
      "satisf": 1270,
      "regard": 1271,
      "policy": 1272,
      "married": 1273,
      "progress": 1274,
      "view": 1275,
      "bad": 1276,
      "ci": 1277,
      "fro": 1278,
      "gage": 1279,
      "list": 1280,
      "run": 1281,
      "tgage": 1282,
      "thank": 1283,
      "init": 1284,
      "their": 1285,
      "act": 1286,
      "sted": 1287,
      "ses": 1288,
      "notice": 1289,
      "charging": 1290,
      "romised": 1291,
      "table": 1292,
      "takes": 1293,
      "advis": 1294,
      "proced": 1295,
      "mugged": 1296,
      "statements": 1297,
      "via": 1298,
      "play": 1299,
      "mortgage": 1300,
      "import": 1301,
      "interbank": 1302,
      "maybe": 1303,
      "ucted": 1304,
      "normall": 1305,
      "normal": 1306,
      "frequently": 1307,
      "deducted": 1308,
      "satisfied": 1309,
      "procedure": 1310,
      "normally": 1311,
      "500": 1312,
      "due": 1313,
      "est": 1314,
      "hand": 1315,
      "ig": 1316,
      "low": 1317,
      "pri": 1318,
      "rus": 1319,
      "tow": 1320,
      "ature": 1321,
      "ited": 1322,
      "ort": 1323,
      "necess": 1324,
      "feature": 1325,
      "erested": 1326,
      "outside": 1327,
      "log": 1328,
      "ird": 1329,
      "expired": 1330,
      "shop": 1331,
      "finish": 1332,
      "conf": 1333,
      "concer": 1334,
      "correctly": 1335,
      "reverse": 1336,
      "looked": 1337,
      "reasons": 1338,
      "directly": 1339,
      "permis": 1340,
      "issued": 1341,
      "frame": 1342,
      "ulent": 1343,
      "compromised": 1344,
      "months": 1345,
      "interested": 1346,
      "odd": 1347,
      "types": 1348,
      "replacement": 1349,
      "idea": 1350,
      "fraudulent": 1351,
      "ruble": 1352,
      "initi": 1353,
      "advise": 1354,
      "important": 1355,
      "cul": 1356,
      "down": 1357,
      "gro": 1358,
      "ious": 1359,
      "jac": 1360,
      "zen": 1361,
      "thod": 1362,
      "resu": 1363,
      "removed": 1364,
      "tomor": 1365,
      "cant": 1366,
      "method": 1367,
      "separ": 1368,
      "shi": 1369,
      "credited": 1370,
      "locate": 1371,
      "cleared": 1372,
      "currently": 1373,
      "swallowed": 1374,
      "expiring": 1375,
      "expiration": 1376,
      "terminate": 1377,
      "accidentally": 1378,
      "frozen": 1379,
      "town": 1380,
      "necessary": 1381,
      "permission": 1382,
      "jacket": 1383,
      "resul": 1384,
      "tomorrow": 1385,
      "?!": 1386,
      "car": 1387,
      "cal": 1388,
      "gl": 1389,
      "gas": 1390,
      "str": 1391,
      "tal": 1392,
      "vid": 1393,
      "wish": 1394,
      "those": 1395,
      "enc": 1396,
      "ace": 1397,
      "dom": 1398,
      "llow": 1399,
      "states": 1400,
      "secur": 1401,
      "near": 1402,
      "unlock": 1403,
      "often": 1404,
      "pose": 1405,
      "somewhere": 1406,
      "provid": 1407,
      "sian": 1408,
      "forever": 1409,
      "perform": 1410,
      "modif": 1411,
      "question": 1412,
      "contin": 1413,
      "issues": 1414,
      "standard": 1415,
      "prefer": 1416,
      "follow": 1417,
      "identify": 1418,
      "...": 1419,
      "russian": 1420,
      "grocer": 1421,
      "calcul": 1422,
      "each": 1423,
      "lot": 1424,
      "ol": 1425,
      "inc": 1426,
      "tory": 1427,
      "ative": 1428,
      "trace": 1429,
      "des": 1430,
      "esses": 1431,
      "unsuccessful": 1432,
      "rence": 1433,
      "feel": 1434,
      "showed": 1435,
      "tern": 1436,
      "sign": 1437,
      "weird": 1438,
      "acceptable": 1439,
      "recall": 1440,
      "automatic": 1441,
      "duplicated": 1442,
      "spain": 1443,
      "posted": 1444,
      "higher": 1445,
      "businesses": 1446,
      "random": 1447,
      "convert": 1448,
      "concerned": 1449,
      "security": 1450,
      "modify": 1451,
      "emp": 1452,
      "ff": 1453,
      "fac": 1454,
      "his": 1455,
      "led": 1456,
      "late": 1457,
      "sus": 1458,
      "vent": 1459,
      "review": 1460,
      "itch": 1461,
      "ones": 1462,
      "star": 1463,
      "accur": 1464,
      "alright": 1465,
      "offici": 1466,
      "offered": 1467,
      "liar": 1468,
      "rible": 1469,
      "giving": 1470,
      "setting": 1471,
      "imp": 1472,
      "mind": 1473,
      "minimum": 1474,
      "costs": 1475,
      "interval": 1476,
      "expecting": 1477,
      "fixed": 1478,
      "attempting": 1479,
      "unblocked": 1480,
      "clearly": 1481,
      "confirm": 1482,
      "confirmed": 1483,
      "familiar": 1484,
      "rather": 1485,
      "price": 1486,
      "confused": 1487,
      "methods": 1488,
      "calculated": 1489,
      "accurate": 1490,
      "official": 1491,
      "intervals": 1492,
      "air": 1493,
      "br": 1494,
      "cri": 1495,
      "fut": 1496,
      "hit": 1497,
      "hal": 1498,
      "hid": 1499,
      "hill": 1500,
      "om": 1501,
      "oid": 1502,
      "small": 1503,
      "sort": 1504,
      "turn": 1505,
      "ree": 1506,
      "asso": 1507,
      "erate": 1508,
      "tro": 1509,
      "les": 1510,
      "forgotten": 1511,
      "notting": 1512,
      "ustr": 1513,
      "cop": 1514,
      "receipt": 1515,
      "proof": 1516,
      "proving": 1517,
      "year": 1518,
      "possib": 1519,
      "finding": 1520,
      "visit": 1521,
      "operate": 1522,
      "locked": 1523,
      "letting": 1524,
      "comes": 1525,
      "putting": 1526,
      "ression": 1527,
      "accepts": 1528,
      "single": 1529,
      "attempts": 1530,
      "discounts": 1531,
      "typically": 1532,
      "document": 1533,
      "fully": 1534,
      "submitted": 1535,
      "instant": 1536,
      "pulled": 1537,
      "previously": 1538,
      "regards": 1539,
      "talk": 1540,
      "history": 1541,
      "susp": 1542,
      "impression": 1543,
      "future": 1544,
      "half": 1545,
      "hidden": 1546,
      "bas": 1547,
      "city": 1548,
      "ctions": 1549,
      "draw": 1550,
      "fill": 1551,
      "faster": 1552,
      "hou": 1553,
      "pr": 1554,
      "part": 1555,
      "rid": 1556,
      "site": 1557,
      "tle": 1558,
      "youn": 1559,
      "repe": 1560,
      "repor": 1561,
      "metro": 1562,
      "lling": 1563,
      "select": 1564,
      "altern": 1565,
      "exact": 1566,
      "ross": 1567,
      "gets": 1568,
      "unsure": 1569,
      "unknown": 1570,
      "united": 1571,
      "applic": 1572,
      "usa": 1573,
      "active": 1574,
      "area": 1575,
      "loy": 1576,
      "chequ": 1577,
      "ations": 1578,
      "proper": 1579,
      "acked": 1580,
      "web": 1581,
      "configure": 1582,
      "depositing": 1583,
      "isnt": 1584,
      "five": 1585,
      "limited": 1586,
      "ordering": 1587,
      "wont": 1588,
      "passed": 1589,
      "causing": 1590,
      "difference": 1591,
      "numbers": 1592,
      "appearing": 1593,
      "frustr": 1594,
      "matter": 1595,
      "local": 1596,
      "resident": 1597,
      "travelling": 1598,
      "closest": 1599,
      "prevent": 1600,
      "broke": 1601,
      "realize": 1602,
      "reflected": 1603,
      "family": 1604,
      "ciated": 1605,
      "continu": 1606,
      "increas": 1607,
      "started": 1608,
      "crip": 1609,
      "associated": 1610,
      "house": 1611,
      "alternative": 1612,
      "cheques": 1613,
      "--": 1614,
      "call": 1615,
      "ger": 1616,
      "lit": 1617,
      "non": 1618,
      "oto": 1619,
      "sit": 1620,
      "vol": 1621,
      "war": 1622,
      "xim": 1623,
      "incur": 1624,
      "instr": 1625,
      "retri": 1626,
      "ton": 1627,
      "onto": 1628,
      "ater": 1629,
      "ery": 1630,
      "orig": 1631,
      "upset": 1632,
      "accord": 1633,
      "determin": 1634,
      "sess": 1635,
      "best": 1636,
      "ote": 1637,
      "although": 1638,
      "almost": 1639,
      "tic": 1640,
      "ceed": 1641,
      "paycheck": 1642,
      "pped": 1643,
      "utes": 1644,
      "unhappy": 1645,
      "appreci": 1646,
      "icious": 1647,
      "iring": 1648,
      "terrible": 1649,
      "experi": 1650,
      "photo": 1651,
      "others": 1652,
      "accepting": 1653,
      "caused": 1654,
      "minutes": 1655,
      "purchasing": 1656,
      "typo": 1657,
      "standing": 1658,
      "remely": 1659,
      "solve": 1660,
      "cryptocurrency": 1661,
      "approxim": 1662,
      "spare": 1663,
      "spite": 1664,
      "mailed": 1665,
      "valid": 1666,
      "extremely": 1667,
      "resolved": 1668,
      "manage": 1669,
      "clu": 1670,
      "entering": 1671,
      "regarding": 1672,
      "thanks": 1673,
      "separately": 1674,
      "results": 1675,
      "desper": 1676,
      "employ": 1677,
      "facing": 1678,
      "copy": 1679,
      "years": 1680,
      "documentation": 1681,
      "suspicious": 1682,
      "repeated": 1683,
      "reported": 1684,
      "exactly": 1685,
      "application": 1686,
      "properly": 1687,
      "website": 1688,
      "increased": 1689,
      "cription": 1690,
      "little": 1691,
      "origin": 1692,
      "according": 1693,
      "aus": 1694,
      "cent": 1695,
      "ces": 1696,
      "cross": 1697,
      "emb": 1698,
      "fair": 1699,
      "hacked": 1700,
      "iod": 1701,
      "lay": 1702,
      "later": 1703,
      "mote": 1704,
      "oc": 1705,
      "oin": 1706,
      "pack": 1707,
      "pick": 1708,
      "sen": 1709,
      "scription": 1710,
      "uctions": 1711,
      "zer": 1712,
      "invol": 1713,
      "remote": 1714,
      "around": 1715,
      "isting": 1716,
      "ched": 1717,
      "gest": 1718,
      "tranfer": 1719,
      "transfered": 1720,
      "forth": 1721,
      "upid": 1722,
      "stupid": 1723,
      "device": 1724,
      "despite": 1725,
      "delay": 1726,
      "exceed": 1727,
      "neare": 1728,
      "tired": 1729,
      "unexpected": 1730,
      "unfamiliar": 1731,
      "needing": 1732,
      "pop": 1733,
      "world": 1734,
      "heard": 1735,
      "anyway": 1736,
      "display": 1737,
      "thru": 1738,
      "suf": 1739,
      "finally": 1740,
      "deposits": 1741,
      "stores": 1742,
      "file": 1743,
      "suppose": 1744,
      "completing": 1745,
      "gible": 1746,
      "diffic": 1747,
      "period": 1748,
      "setup": 1749,
      "cancelling": 1750,
      "cancellation": 1751,
      "lesser": 1752,
      "explaining": 1753,
      "beneficiery": 1754,
      "euros": 1755,
      "everywhere": 1756,
      "incorrectly": 1757,
      "linked": 1758,
      "opening": 1759,
      "rejecting": 1760,
      "attempt": 1761,
      "reward": 1762,
      "present": 1763,
      "refuse": 1764,
      "refill": 1765,
      "refused": 1766,
      "2018": 1767,
      "guess": 1768,
      "better": 1769,
      "realized": 1770,
      "subscription": 1771,
      "usual": 1772,
      "successfully": 1773,
      "policies": 1774,
      "rules": 1775,
      "tria": 1776,
      "dollars": 1777,
      "stays": 1778,
      "requirements": 1779,
      "finished": 1780,
      "shipped": 1781,
      "provided": 1782,
      "grocery": 1783,
      "groceries": 1784,
      "latest": 1785,
      "possibly": 1786,
      "alternatives": 1787,
      "instructions": 1788,
      "appreciate": 1789,
      "photos": 1790,
      "approximately": 1791,
      "desperately": 1792,
      "employer": 1793,
      "austria": 1794,
      "nearest": 1795,
      "aged": 1796,
      "ahe": 1797,
      "bl": 1798,
      "bag": 1799,
      "care": 1800,
      "da": 1801,
      "ei": 1802,
      "eat": 1803,
      "eli": 1804,
      "econ": 1805,
      "ether": 1806,
      "gy": 1807,
      "ima": 1808,
      "ible": 1809,
      "mple": 1810,
      "night": 1811,
      "pon": 1812,
      "pat": 1813,
      "rass": 1814,
      "tun": 1815,
      "van": 1816,
      "ward": 1817,
      "inve": 1818,
      "inqu": 1819,
      "inside": 1820,
      "incre": 1821,
      "inclu": 1822,
      "rel": 1823,
      "arrass": 1824,
      "whether": 1825,
      "asking": 1826,
      "ers": 1827,
      "itzer": 1828,
      "orted": 1829,
      "member": 1830,
      "ges": 1831,
      "fortun": 1832,
      "upon": 1833,
      "stating": 1834,
      "deter": 1835,
      "deactivate": 1836,
      "otect": 1837,
      "along": 1838,
      "existing": 1839,
      "notif": 1840,
      "changes": 1841,
      "unch": 1842,
      "unusual": 1843,
      "unfortun": 1844,
      "fect": 1845,
      "living": 1846,
      "apped": 1847,
      "appoin": 1848,
      "case": 1849,
      "ended": 1850,
      "col": 1851,
      "hear": 1852,
      "dissatisfied": 1853,
      "disappoin": 1854,
      "refunds": 1855,
      "throw": 1856,
      "such": 1857,
      "authen": 1858,
      "simp": 1859,
      "simple": 1860,
      "purpose": 1861,
      "yours": 1862,
      "banks": 1863,
      "activity": 1864,
      "thinking": 1865,
      "older": 1866,
      "processing": 1867,
      "readable": 1868,
      "forms": 1869,
      "nowhere": 1870,
      "imated": 1871,
      "allowing": 1872,
      "updating": 1873,
      "avoid": 1874,
      "accessed": 1875,
      "deny": 1876,
      "match": 1877,
      "messed": 1878,
      "ular": 1879,
      "hope": 1880,
      "respon": 1881,
      "izing": 1882,
      "guide": 1883,
      "sides": 1884,
      "stuff": 1885,
      "approve": 1886,
      "switch": 1887,
      "switzer": 1888,
      "typed": 1889,
      "specified": 1890,
      "value": 1891,
      "regular": 1892,
      "trip": 1893,
      "products": 1894,
      "billing": 1895,
      "manu": 1896,
      "estimated": 1897,
      "initiated": 1898,
      "separate": 1899,
      "glitch": 1900,
      "encing": 1901,
      "providing": 1902,
      "following": 1903,
      "brit": 1904,
      "omic": 1905,
      "protect": 1906,
      "warned": 1907,
      "retrieve": 1908,
      "determined": 1909,
      "experiencing": 1910,
      "centre": 1911,
      "embarrass": 1912,
      "occur": 1913,
      "package": 1914,
      "involved": 1915,
      "exceeded": 1916,
      "ahead": 1917,
      "either": 1918,
      "eligible": 1919,
      "economic": 1920,
      "gym": 1921,
      "images": 1922,
      "invest": 1923,
      "determine": 1924,
      "disappointed": 1925,
      "authentic": 1926,
      "simply": 1927,
      "switzerland": 1928,
      "\",": 1929,
      ":(": 1930,
      "ak": 1931,
      "aim": 1932,
      "bor": 1933,
      "bay": 1934,
      "base": 1935,
      "bunch": 1936,
      "ctr": 1937,
      "cure": 1938,
      "cket": 1939,
      "din": 1940,
      "ding": 1941,
      "drun": 1942,
      "ef": 1943,
      "ele": 1944,
      "ely": 1945,
      "email": 1946,
      "fur": 1947,
      "fact": 1948,
      "gth": 1949,
      "gre": 1950,
      "hard": 1951,
      "hop": 1952,
      "ily": 1953,
      "imb": 1954,
      "lish": 1955,
      "mi": 1956,
      "mart": 1957,
      "sad": 1958,
      "spending": 1959,
      "slow": 1960,
      "smart": 1961,
      "tly": 1962,
      "ured": 1963,
      "uation": 1964,
      "ution": 1965,
      "wd": 1966,
      "three": 1967,
      "ances": 1968,
      "input": 1969,
      "renew": 1970,
      "recor": 1971,
      "retail": 1972,
      "reside": 1973,
      "reimb": 1974,
      "tor": 1975,
      "ont": 1976,
      "outra": 1977,
      "enable": 1978,
      "assess": 1979,
      "chose": 1980,
      "tras": 1981,
      "trapped": 1982,
      "geous": 1983,
      "forget": 1984,
      "fortable": 1985,
      "forward": 1986,
      "deactivated": 1987,
      "depart": 1988,
      "secure": 1989,
      "besides": 1990,
      "transfering": 1991,
      "payed": 1992,
      "main": 1993,
      "unaware": 1994,
      "lice": 1995,
      "apparen": 1996,
      "pocket": 1997,
      "police": 1998,
      "await": 1999,
      "icul": 2000,
      "uses": 2001,
      "load": 2002,
      "anyone": 2003,
      "decide": 2004,
      "suck": 2005,
      "short": 2006,
      "ablish": 2007,
      "telling": 2008,
      "banking": 2009,
      "comfortable": 2010,
      "hasnt": 2011,
      "canceling": 2012,
      "fice": 2013,
      "limitations": 2014,
      "weekend": 2015,
      "direc": 2016,
      "lookup": 2017,
      "completion": 2018,
      "wondered": 2019,
      "length": 2020,
      "plan": 2021,
      "misplaced": 2022,
      "recognizing": 2023,
      "sends": 2024,
      "accessing": 2025,
      "completely": 2026,
      "sington": 2027,
      "front": 2028,
      "kensington": 2029,
      "closed": 2030,
      "authorise": 2031,
      "ously": 2032,
      "recieve": 2033,
      "figured": 2034,
      "ished": 2035,
      "ucture": 2036,
      "speed": 2037,
      "choice": 2038,
      "safe": 2039,
      "spend": 2040,
      "reached": 2041,
      "reaches": 2042,
      "staying": 2043,
      "functioning": 2044,
      "managed": 2045,
      "claim": 2046,
      "pulling": 2047,
      "conversion": 2048,
      "running": 2049,
      "establish": 2050,
      "igate": 2051,
      "rubles": 2052,
      "initial": 2053,
      "ship": 2054,
      "result": 2055,
      "carry": 2056,
      "glare": 2057,
      "structure": 2058,
      "ency": 2059,
      "nearly": 2060,
      "performed": 2061,
      "questions": 2062,
      "continue": 2063,
      "reviewing": 2064,
      "settings": 2065,
      "turns": 2066,
      "basis": 2067,
      "ridicul": 2068,
      "young": 2069,
      "youngest": 2070,
      "selected": 2071,
      "frustrated": 2072,
      "situation": 2073,
      "validate": 2074,
      "repeatedly": 2075,
      "displaying": 2076,
      "difficul": 2077,
      "blur": 2078,
      "vanished": 2079,
      "increase": 2080,
      "unfortunately": 2081,
      "manually": 2082,
      "british": 2083,
      "occurred": 2084,
      "investigate": 2085,
      "ctron": 2086,
      "electron": 2087,
      "further": 2088,
      "hoping": 2089,
      "reimbur": 2090,
      "outrageous": 2091,
      "apparently": 2092,
      "awaiting": 2093,
      "\"?": 2094,
      ".?": 2095,
      "1l": 2096,
      "200": 2097,
      "80": 2098,
      "awhile": 2099,
      "bi": 2100,
      "band": 2101,
      "big": 2102,
      "cy": 2103,
      "cli": 2104,
      "cir": 2105,
      "cque": 2106,
      "ds": 2107,
      "dam": 2108,
      "eved": 2109,
      "eating": 2110,
      "fal": 2111,
      "gen": 2112,
      "gency": 2113,
      "hor": 2114,
      "hind": 2115,
      "ip": 2116,
      "ial": 2117,
      "knew": 2118,
      "lon": 2119,
      "mand": 2120,
      "na": 2121,
      "ner": 2122,
      "oh": 2123,
      "pend": 2124,
      "sli": 2125,
      "sche": 2126,
      "sorted": 2127,
      "um": 2128,
      "uly": 2129,
      "uff": 2130,
      "vn": 2131,
      "var": 2132,
      "void": 2133,
      "yo": 2134,
      "£.": 2135,
      "third": 2136,
      "ang": 2137,
      "answ": 2138,
      "reinst": 2139,
      "replaced": 2140,
      "remain": 2141,
      "toge": 2142,
      "tota": 2143,
      "total": 2144,
      "arning": 2145,
      "ense": 2146,
      "ensure": 2147,
      "ert": 2148,
      "ering": 2149,
      "ingly": 2150,
      "itself": 2151,
      "ors": 2152,
      "orbit": 2153,
      "truly": 2154,
      "acqu": 2155,
      "meal": 2156,
      "lead": 2157,
      "least": 2158,
      "learning": 2159,
      "lly": 2160,
      "entire": 2161,
      "ford": 2162,
      "become": 2163,
      "alert": 2164,
      "havn": 2165,
      "exorbit": 2166,
      "ided": 2167,
      "tim": 2168,
      "till": 2169,
      "union": 2170,
      "unsupported": 2171,
      "unlimited": 2172,
      "ference": 2173,
      "apps": 2174,
      "user": 2175,
      "usable": 2176,
      "cover": 2177,
      "cool": 2178,
      "ica": 2179,
      "withdraws": 2180,
      "adress": 2181,
      "lose": 2182,
      "checque": 2183,
      "disp": 2184,
      "decided": 2185,
      "wants": 2186,
      "knowled": 2187,
      "profile": 2188,
      "expedit": 2189,
      "ility": 2190,
      "sum": 2191,
      "shut": 2192,
      "sible": 2193,
      "contain": 2194,
      "configured": 2195,
      "amex": 2196,
      "corrected": 2197,
      "seemed": 2198,
      "earth": 2199,
      "visited": 2200,
      "visible": 2201,
      "ages": 2202,
      "dig": 2203,
      "afford": 2204,
      "beforehand": 2205,
      "moment": 2206,
      "mobi": 2207,
      "arrival": 2208,
      "failure": 2209,
      "doesnt": 2210,
      "recover": 2211,
      "recognized": 2212,
      "numer": 2213,
      "gives": 2214,
      "ficient": 2215,
      "steal": 2216,
      "deleted": 2217,
      "messages": 2218,
      "000": 2219,
      "unblocking": 2220,
      "seconds": 2221,
      "arrives": 2222,
      "agree": 2223,
      "elsewhere": 2224,
      "immediate": 2225,
      "certainly": 2226,
      "means": 2227,
      "figuring": 2228,
      "understanding": 2229,
      "monthly": 2230,
      "speak": 2231,
      "solution": 2232,
      "quicker": 2233,
      "indic": 2234,
      "couldnt": 2235,
      "saving": 2236,
      "victim": 2237,
      "customers": 2238,
      "fluff": 2239,
      "holdings": 2240,
      "reaching": 2241,
      "troublesho": 2242,
      "highest": 2243,
      "realised": 2244,
      "applying": 2245,
      "parti": 2246,
      "accidently": 2247,
      "obtained": 2248,
      "obtaining": 2249,
      "raise": 2250,
      "handle": 2251,
      "login": 2252,
      "shipping": 2253,
      "nearby": 2254,
      "unlocked": 2255,
      "empty": 2256,
      "factor": 2257,
      "brand": 2258,
      "receipts": 2259,
      "possibility": 2260,
      "based": 2261,
      "filling": 2262,
      "frustrating": 2263,
      "residents": 2264,
      "continuously": 2265,
      "germany": 2266,
      "sense": 2267,
      "delayed": 2268,
      "rewarded": 2269,
      "daily": 2270,
      "pattern": 2271,
      "inquiring": 2272,
      "related": 2273,
      "notification": 2274,
      "embarrassed": 2275,
      "authenticate": 2276,
      "dinner": 2277,
      "retailers": 2278,
      "assessed": 2279,
      "sucks": 2280,
      "directions": 2281,
      "ridiculous": 2282,
      "difficulty": 2283,
      "electronic": 2284,
      "damn": 2285,
      "false": 2286,
      "horrible": 2287,
      "scheme": 2288,
      "various": 2289,
      "answer": 2290,
      "together": 2291,
      "totally": 2292,
      "exorbitant": 2293,
      "knowledge": 2294,
      "expedited": 2295,
      "mobile": 2296,
      "numerous": 2297,
      "fluffy": 2298,
      "troubleshoot": 2299,
      "!?": 2300,
      "\".": 2301,
      ",.": 2302,
      "3d": 2303,
      "40": 2304,
      "5x": 2305,
      "?!!": 2306,
      "aver": 2307,
      "bir": 2308,
      "bab": 2309,
      "bring": 2310,
      "bran": 2311,
      "bled": 2312,
      "cat": 2313,
      "cut": 2314,
      "cation": 2315,
      "cour": 2316,
      "clar": 2317,
      "cited": 2318,
      "du": 2319,
      "dou": 2320,
      "dat": 2321,
      "dle": 2322,
      "dent": 2323,
      "eas": 2324,
      "equ": 2325,
      "eving": 2326,
      "emer": 2327,
      "fid": 2328,
      "fli": 2329,
      "fare": 2330,
      "fits": 2331,
      "gr": 2332,
      "gir": 2333,
      "gain": 2334,
      "grow": 2335,
      "hed": 2336,
      "hate": 2337,
      "hur": 2338,
      "hus": 2339,
      "hund": 2340,
      "ie": 2341,
      "jour": 2342,
      "jap": 2343,
      "job": 2344,
      "kip": 2345,
      "la": 2346,
      "ls": 2347,
      "mid": 2348,
      "mend": 2349,
      "mother": 2350,
      "mpor": 2351,
      "marri": 2352,
      "none": 2353,
      "os": 2354,
      "opin": 2355,
      "pan": 2356,
      "ped": 2357,
      "pus": 2358,
      "prom": 2359,
      "penc": 2360,
      "ram": 2361,
      "rout": 2362,
      "sha": 2363,
      "sid": 2364,
      "sick": 2365,
      "scre": 2366,
      "sched": 2367,
      "skip": 2368,
      "tent": 2369,
      "tank": 2370,
      "tacked": 2371,
      "ug": 2372,
      "ule": 2373,
      "ulti": 2374,
      "uci": 2375,
      "vend": 2376,
      "vance": 2377,
      "wed": 2378,
      "wit": 2379,
      "wise": 2380,
      "yor": 2381,
      "zing": 2382,
      "ane": 2383,
      "ans": 2384,
      "anti": 2385,
      "anation": 2386,
      "incomplete": 2387,
      "incoming": 2388,
      "inaccurate": 2389,
      "recom": 2390,
      "revi": 2391,
      "remed": 2392,
      "reactive": 2393,
      "represent": 2394,
      "oned": 2395,
      "atta": 2396,
      "ence": 2397,
      "enab": 2398,
      "ensi": 2399,
      "aste": 2400,
      "assu": 2401,
      "assign": 2402,
      "erica": 2403,
      "ards": 2404,
      "orate": 2405,
      "tract": 2406,
      "across": 2407,
      "lege": 2408,
      "entity": 2409,
      "entive": 2410,
      "transcation": 2411,
      "vere": 2412,
      "stations": 2413,
      "defect": 2414,
      "demand": 2415,
      "sees": 2416,
      "section": 2417,
      "belong": 2418,
      "behind": 2419,
      "alter": 2420,
      "hae": 2421,
      "havent": 2422,
      "esday": 2423,
      "exh": 2424,
      "extras": 2425,
      "excited": 2426,
      "net": 2427,
      "ney": 2428,
      "nect": 2429,
      "roll": 2430,
      "room": 2431,
      "kets": 2432,
      "note": 2433,
      "payroll": 2434,
      "ify": 2435,
      "vers": 2436,
      "maged": 2437,
      "makes": 2438,
      "utely": 2439,
      "unless": 2440,
      "unsatisfied": 2441,
      "unnecessary": 2442,
      "unacceptable": 2443,
      "unsuccessfully": 2444,
      "ofed": 2445,
      "office": 2446,
      "pleas": 2447,
      "america": 2448,
      "buted": 2449,
      "button": 2450,
      "god": 2451,
      "goofed": 2452,
      "users": 2453,
      "somehow": 2454,
      "areas": 2455,
      "covered": 2456,
      "possess": 2457,
      "awful": 2458,
      "ices": 2459,
      "icking": 2460,
      "worth": 2461,
      "outgoing": 2462,
      "held": 2463,
      "whenever": 2464,
      "wheres": 2465,
      "adver": 2466,
      "advance": 2467,
      "linking": 2468,
      "love": 2469,
      "loose": 2470,
      "teen": 2471,
      "tempor": 2472,
      "helpful": 2473,
      "pins": 2474,
      "disable": 2475,
      "disappear": 2476,
      "distri": 2477,
      "wanting": 2478,
      "quit": 2479,
      "exped": 2480,
      "expensi": 2481,
      "timeframe": 2482,
      "shorted": 2483,
      "absol": 2484,
      "aborate": 2485,
      "size": 2486,
      "final": 2487,
      "somethings": 2488,
      "consent": 2489,
      "consid": 2490,
      "connect": 2491,
      "otherwise": 2492,
      "stored": 2493,
      "mitted": 2494,
      "pect": 2495,
      "waited": 2496,
      "supp": 2497,
      "seemingly": 2498,
      "weekdays": 2499,
      "afra": 2500,
      "cap": 2501,
      "permitted": 2502,
      "pls": 2503,
      "moving": 2504,
      "mistaken": 2505,
      "fails": 2506,
      "physically": 2507,
      "allowance": 2508,
      "explanation": 2509,
      "explained": 2510,
      "informed": 2511,
      "informing": 2512,
      "benefits": 2513,
      "noticing": 2514,
      "everyday": 2515,
      "fixing": 2516,
      "wasnt": 2517,
      "friday": 2518,
      "elaborate": 2519,
      "internationally": 2520,
      "tracked": 2521,
      "board": 2522,
      "resid": 2523,
      "names": 2524,
      "closing": 2525,
      "tenure": 2526,
      "offs": 2527,
      "meaning": 2528,
      "preference": 2529,
      "resetting": 2530,
      "aching": 2531,
      "requiring": 2532,
      "ization": 2533,
      "believed": 2534,
      "disputing": 2535,
      "merchants": 2536,
      "swiped": 2537,
      "indentity": 2538,
      "student": 2539,
      "approaching": 2540,
      "shouldnt": 2541,
      "sale": 2542,
      "saved": 2543,
      "recipients": 2544,
      "special": 2545,
      "swallow": 2546,
      "typing": 2547,
      "flag": 2548,
      "holidays": 2549,
      "highly": 2550,
      "specify": 2551,
      "specifically": 2552,
      "ptly": 2553,
      "!!!": 2554,
      "ideas": 2555,
      "regain": 2556,
      "terminated": 2557,
      "goods": 2558,
      "reflecting": 2559,
      "???": 2560,
      "larger": 2561,
      "obvious": 2562,
      "hometown": 2563,
      "stayed": 2564,
      "requirement": 2565,
      "functional": 2566,
      "program": 2567,
      "instit": 2568,
      "instances": 2569,
      "clue": 2570,
      "cip": 2571,
      "cial": 2572,
      "hands": 2573,
      "handled": 2574,
      "prior": 2575,
      "rush": 2576,
      "confusing": 2577,
      "concern": 2578,
      "fraudulently": 2579,
      "initiate": 2580,
      "initially": 2581,
      "resulted": 2582,
      "unlocking": 2583,
      "preferred": 2584,
      "...?": 2585,
      "incentive": 2586,
      "randomly": 2587,
      "reviewed": 2588,
      "copied": 2589,
      "instantly": 2590,
      "prices": 2591,
      "continues": 2592,
      "continually": 2593,
      "calling": 2594,
      "determining": 2595,
      "tickets": 2596,
      "originally": 2597,
      "fairly": 2598,
      "remotely": 2599,
      "tranferred": 2600,
      "tranferring": 2601,
      "suffice": 2602,
      "sufficient": 2603,
      "difficulti": 2604,
      "refilled": 2605,
      "damaged": 2606,
      "eats": 2607,
      "included": 2608,
      "including": 2609,
      "collect": 2610,
      "college": 2611,
      "hearing": 2612,
      "denying": 2613,
      "respond": 2614,
      "response": 2615,
      "embarrassing": 2616,
      "authentication": 2617,
      "bora": 2618,
      "drunk": 2619,
      "drunken": 2620,
      "effect": 2621,
      "great": 2622,
      "miles": 2623,
      "renewed": 2624,
      "records": 2625,
      "department": 2626,
      "weekends": 2627,
      "planning": 2628,
      "reimburse": 2629,
      "reimbursed": 2630,
      "click": 2631,
      "circu": 2632,
      "gener": 2633,
      "longest": 2634,
      "angry": 2635,
      "reinstall": 2636,
      "remainder": 2637,
      "acquiring": 2638,
      "entirely": 2639,
      "digits": 2640,
      "agreement": 2641,
      "savings": 2642,
      "factors": 2643,
      "average": 2644,
      "birth": 2645,
      "branch": 2646,
      "doubled": 2647,
      "data": 2648,
      "emergency": 2649,
      "fiduci": 2650,
      "gained": 2651,
      "growing": 2652,
      "hurry": 2653,
      "husband": 2654,
      "hundred": 2655,
      "journey": 2656,
      "middle": 2657,
      "marriage": 2658,
      "opinion": 2659,
      "pushed": 2660,
      "promptly": 2661,
      "pencil": 2662,
      "route": 2663,
      "screen": 2664,
      "schedule": 2665,
      "york": 2666,
      "anticip": 2667,
      "recommend": 2668,
      "attached": 2669,
      "enabled": 2670,
      "temporary": 2671,
      "distributed": 2672,
      "expensive": 2673,
      "absolutely": 2674,
      "considering": 2675,
      "afraid": 2676,
      "mistakenly": 2677,
      "difficulties": 2678,
      "fiduciary": 2679,
      "),": 2680,
      ",\"": 2681,
      ".\"": 2682,
      ".)": 2683,
      "12": 2684,
      "13": 2685,
      "15": 2686,
      "16": 2687,
      "17": 2688,
      "19": 2689,
      "1st": 2690,
      "45": 2691,
      "50": 2692,
      "60": 2693,
      "?\"": 2694,
      "?.": 2695,
      "]?": 2696,
      "ai": 2697,
      "acard": 2698,
      "aving": 2699,
      "ahold": 2700,
      "agent": 2701,
      "athor": 2702,
      "atory": 2703,
      "austr": 2704,
      "athrow": 2705,
      "bb": 2706,
      "bre": 2707,
      "bed": 2708,
      "ber": 2709,
      "bate": 2710,
      "bough": 2711,
      "bally": 2712,
      "bul": 2713,
      "breach": 2714,
      "cr": 2715,
      "cone": 2716,
      "cde": 2717,
      "cate": 2718,
      "cchange": 2719,
      "cof": 2720,
      "cam": 2721,
      "cad": 2722,
      "cdon": 2723,
      "cau": 2724,
      "cated": 2725,
      "cru": 2726,
      "center": 2727,
      "crun": 2728,
      "dh": 2729,
      "dp": 2730,
      "dar": 2731,
      "das": 2732,
      "dget": 2733,
      "dur": 2734,
      "dend": 2735,
      "dri": 2736,
      "dies": 2737,
      "dated": 2738,
      "dress": 2739,
      "dates": 2740,
      "ee": 2741,
      "ev": 2742,
      "ey": 2743,
      "eta": 2744,
      "eval": 2745,
      "ections": 2746,
      "ebay": 2747,
      "ecchange": 2748,
      "fc": 2749,
      "fd": 2750,
      "fan": 2751,
      "fle": 2752,
      "fau": 2753,
      "furn": 2754,
      "ftw": 2755,
      "fish": 2756,
      "factual": 2757,
      "faste": 2758,
      "gp": 2759,
      "gan": 2760,
      "gin": 2761,
      "gon": 2762,
      "git": 2763,
      "gor": 2764,
      "gge": 2765,
      "gal": 2766,
      "glo": 2767,
      "gating": 2768,
      "gra": 2769,
      "gree": 2770,
      "hu": 2771,
      "hwere": 2772,
      "hang": 2773,
      "hboard": 2774,
      "ii": 2775,
      "ian": 2776,
      "iin": 2777,
      "iot": 2778,
      "igh": 2779,
      "irect": 2780,
      "icance": 2781,
      "ially": 2782,
      "ieve": 2783,
      "ikes": 2784,
      "iest": 2785,
      "ief": 2786,
      "ivers": 2787,
      "jo": 2788,
      "jor": 2789,
      "join": 2790,
      "jections": 2791,
      "kicking": 2792,
      "lu": 2793,
      "lou": 2794,
      "ling": 2795,
      "lke": 2796,
      "lif": 2797,
      "lack": 2798,
      "lcom": 2799,
      "lame": 2800,
      "lgi": 2801,
      "lfriend": 2802,
      "lty": 2803,
      "lunch": 2804,
      "ms": 2805,
      "mt": 2806,
      "mst": 2807,
      "mary": 2808,
      "maste": 2809,
      "mcdon": 2810,
      "nc": 2811,
      "nan": 2812,
      "ness": 2813,
      "native": 2814,
      "nger": 2815,
      "nesday": 2816,
      "nfc": 2817,
      "oth": 2818,
      "ole": 2819,
      "ove": 2820,
      "oke": 2821,
      "osing": 2822,
      "pu": 2823,
      "ping": 2824,
      "pot": 2825,
      "pal": 2826,
      "pes": 2827,
      "pun": 2828,
      "pic": 2829,
      "plen": 2830,
      "paren": 2831,
      "promised": 2832,
      "passo": 2833,
      "pie": 2834,
      "rise": 2835,
      "rica": 2836,
      "san": 2837,
      "sor": 2838,
      "scan": 2839,
      "sle": 2840,
      "sur": 2841,
      "sun": 2842,
      "swe": 2843,
      "sound": 2844,
      "smo": 2845,
      "stopping": 2846,
      "shell": 2847,
      "scho": 2848,
      "stric": 2849,
      "sses": 2850,
      "scam": 2851,
      "tf": 2852,
      "tan": 2853,
      "tup": 2854,
      "tress": 2855,
      "tise": 2856,
      "tered": 2857,
      "tended": 2858,
      "uin": 2859,
      "ued": 2860,
      "ume": 2861,
      "uti": 2862,
      "utions": 2863,
      "uknown": 2864,
      "uched": 2865,
      "vr": 2866,
      "vill": 2867,
      "vok": 2868,
      "wan": 2869,
      "wen": 2870,
      "wing": 2871,
      "wages": 2872,
      "wai": 2873,
      "woke": 2874,
      "wtf": 2875,
      "xed": 2876,
      "xic": 2877,
      "xemb": 2878,
      "xible": 2879,
      "yed": 2880,
      "ying": 2881,
      "yfriend": 2882,
      "yikes": 2883,
      "£,": 2884,
      "thief": 2885,
      "thole": 2886,
      "ange": 2887,
      "anct": 2888,
      "anno": 2889,
      "anoid": 2890,
      "anfd": 2891,
      "ination": 2892,
      "insi": 2893,
      "instate": 2894,
      "inactivate": 2895,
      "indone": 2896,
      "inputting": 2897,
      "incase": 2898,
      "invalidate": 2899,
      "inadver": 2900,
      "insufficient": 2901,
      "insan": 2902,
      "refer": 2903,
      "recharged": 2904,
      "recur": 2905,
      "redepos": 2906,
      "reorder": 2907,
      "resent": 2908,
      "revis": 2909,
      "remor": 2910,
      "reactivated": 2911,
      "reactivation": 2912,
      "relocated": 2913,
      "retro": 2914,
      "reunion": 2915,
      "reference": 2916,
      "reapplying": 2917,
      "repan": 2918,
      "retract": 2919,
      "revere": 2920,
      "restored": 2921,
      "removing": 2922,
      "reroute": 2923,
      "rebate": 2924,
      "rejections": 2925,
      "replen": 2926,
      "revok": 2927,
      "reinstate": 2928,
      "tot": 2929,
      "toff": 2930,
      "touched": 2931,
      "myster": 2932,
      "ouses": 2933,
      "atre": 2934,
      "atro": 2935,
      "atting": 2936,
      "atform": 2937,
      "atient": 2938,
      "attle": 2939,
      "atible": 2940,
      "attacked": 2941,
      "attended": 2942,
      "theft": 2943,
      "theatre": 2944,
      "arm": 2945,
      "arch": 2946,
      "aries": 2947,
      "arran": 2948,
      "eds": 2949,
      "isted": 2950,
      "iscated": 2951,
      "entry": 2952,
      "ensed": 2953,
      "enced": 2954,
      "engl": 2955,
      "enjo": 2956,
      "whill": 2957,
      "asaction": 2958,
      "asses": 2959,
      "erk": 2960,
      "ercard": 2961,
      "iting": 2962,
      "ital": 2963,
      "itut": 2964,
      "itally": 2965,
      "itive": 2966,
      "orde": 2967,
      "orations": 2968,
      "organ": 2969,
      "chand": 2970,
      "chage": 2971,
      "chaged": 2972,
      "chatting": 2973,
      "trad": 2974,
      "trick": 2975,
      "true": 2976,
      "acount": 2977,
      "acting": 2978,
      "actory": 2979,
      "owe": 2980,
      "owed": 2981,
      "cange": 2982,
      "canad": 2983,
      "dos": 2984,
      "met": 2985,
      "meant": 2986,
      "messes": 2987,
      "lection": 2988,
      "leaving": 2989,
      "legit": 2990,
      "leeds": 2991,
      "tranasaction": 2992,
      "entp": 2993,
      "enty": 2994,
      "entail": 2995,
      "ential": 2996,
      "entially": 2997,
      "transation": 2998,
      "transpor": 2999,
      "transition": 3000,
      "transact": 3001,
      "transger": 3002,
      "fora": 3003,
      "formu": 3004,
      "forgetting": 3005,
      "forie": 3006,
      "upsetting": 3007,
      "upload": 3008,
      "vey": 3009,
      "vely": 3010,
      "station": 3011,
      "stage": 3012,
      "stick": 3013,
      "stree": 3014,
      "stip": 3015,
      "stanfd": 3016,
      "stination": 3017,
      "stitut": 3018,
      "acces": 3019,
      "accpe": 3020,
      "accom": 3021,
      "defer": 3022,
      "deple": 3023,
      "dete": 3024,
      "deep": 3025,
      "demo": 3026,
      "deser": 3027,
      "depost": 3028,
      "depar": 3029,
      "devoid": 3030,
      "destination": 3031,
      "ountering": 3032,
      "whatso": 3033,
      "whatever": 3034,
      "severe": 3035,
      "seattle": 3036,
      "search": 3037,
      "selection": 3038,
      "beach": 3039,
      "beknown": 3040,
      "becomes": 3041,
      "begin": 3042,
      "belgi": 3043,
      "youre": 3044,
      "als": 3045,
      "alot": 3046,
      "alds": 3047,
      "alify": 3048,
      "alian": 3049,
      "ham": 3050,
      "haust": 3051,
      "accounting": 3052,
      "andson": 3053,
      "exist": 3054,
      "exposed": 3055,
      "excl": 3056,
      "exclu": 3057,
      "exchage": 3058,
      "exhaust": 3059,
      "negating": 3060,
      "neigh": 3061,
      "idiot": 3062,
      "withing": 3063,
      "roder": 3064,
      "robb": 3065,
      "tie": 3066,
      "tip": 3067,
      "tively": 3068,
      "waste": 3069,
      "keen": 3070,
      "keyed": 3071,
      "cell": 3072,
      "noting": 3073,
      "mentary": 3074,
      "payee": 3075,
      "paymet": 3076,
      "sold": 3077,
      "social": 3078,
      "softw": 3079,
      "thats": 3080,
      "chance": 3081,
      "ificance": 3082,
      "theres": 3083,
      "thereto": 3084,
      "chargged": 3085,
      "atest": 3086,
      "urning": 3087,
      "urgency": 3088,
      "verfi": 3089,
      "version": 3090,
      "mad": 3091,
      "major": 3092,
      "undo": 3093,
      "unknow": 3094,
      "uninst": 3095,
      "unusually": 3096,
      "unsatisf": 3097,
      "unexplained": 3098,
      "unathor": 3099,
      "univers": 3100,
      "unbeknown": 3101,
      "offic": 3102,
      "plexed": 3103,
      "plementary": 3104,
      "fear": 3105,
      "fell": 3106,
      "liest": 3107,
      "lizing": 3108,
      "appil": 3109,
      "amt": 3110,
      "among": 3111,
      "amout": 3112,
      "didint": 3113,
      "poor": 3114,
      "poses": 3115,
      "ongize": 3116,
      "cast": 3117,
      "cases": 3118,
      "casion": 3119,
      "cashing": 3120,
      "goin": 3121,
      "goign": 3122,
      "golf": 3123,
      "uss": 3124,
      "usion": 3125,
      "usage": 3126,
      "usign": 3127,
      "usive": 3128,
      "somewhat": 3129,
      "somehwere": 3130,
      "coat": 3131,
      "positive": 3132,
      "rency": 3133,
      "hassle": 3134,
      "ics": 3135,
      "ical": 3136,
      "icken": 3137,
      "useful": 3138,
      "atmos": 3139,
      "worry": 3140,
      "outlet": 3141,
      "outline": 3142,
      "outreg": 3143,
      "outstanding": 3144,
      "funding": 3145,
      "rawals": 3146,
      "heathrow": 3147,
      "withdrawed": 3148,
      "wherever": 3149,
      "workplace": 3150,
      "adjust": 3151,
      "currec": 3152,
      "curran": 3153,
      "curious": 3154,
      "lined": 3155,
      "lines": 3156,
      "loan": 3157,
      "losing": 3158,
      "logged": 3159,
      "actions": 3160,
      "curreng": 3161,
      "anytime": 3162,
      "anyting": 3163,
      "anywere": 3164,
      "cking": 3165,
      "test": 3166,
      "currences": 3167,
      "allt": 3168,
      "iry": 3169,
      "recepient": 3170,
      "receipient": 3171,
      "illy": 3172,
      "terms": 3173,
      "helping": 3174,
      "verifaction": 3175,
      "verifacation": 3176,
      "stillpending": 3177,
      "disaster": 3178,
      "disallowed": 3179,
      "disclose": 3180,
      "dispose": 3181,
      "disclosed": 3182,
      "discontinue": 3183,
      "disagree": 3184,
      "discovered": 3185,
      "distress": 3186,
      "decreas": 3187,
      "decorations": 3188,
      "redirect": 3189,
      "newbor": 3190,
      "declines": 3191,
      "makeup": 3192,
      "rip": 3193,
      "rier": 3194,
      "ride": 3195,
      "ripping": 3196,
      "ept": 3197,
      "tube": 3198,
      "tutor": 3199,
      "tuesday": 3200,
      "tugal": 3201,
      "knowing": 3202,
      "proceed": 3203,
      "probab": 3204,
      "query": 3205,
      "qualify": 3206,
      "quicken": 3207,
      "export": 3208,
      "expense": 3209,
      "write": 3210,
      "wrote": 3211,
      "writing": 3212,
      "wrongly": 3213,
      "wrongfully": 3214,
      "cardsper": 3215,
      "trade": 3216,
      "identy": 3217,
      "idently": 3218,
      "sue": 3219,
      "suite": 3220,
      "suited": 3221,
      "sugge": 3222,
      "timeline": 3223,
      "ably": 3224,
      "above": 3225,
      "ssly": 3226,
      "disposble": 3227,
      "sia": 3228,
      "siph": 3229,
      "sidered": 3230,
      "fined": 3231,
      "finance": 3232,
      "essential": 3233,
      "purposes": 3234,
      "welcom": 3235,
      "phase": 3236,
      "phere": 3237,
      "phics": 3238,
      "condo": 3239,
      "considered": 3240,
      "amounts": 3241,
      "forewarned": 3242,
      "compe": 3243,
      "commis": 3244,
      "common": 3245,
      "tryed": 3246,
      "backup": 3247,
      "correspond": 3248,
      "cancelable": 3249,
      "intoxic": 3250,
      "bypass": 3251,
      "assisting": 3252,
      "assisted": 3253,
      "happend": 3254,
      "ghts": 3255,
      "receives": 3256,
      "pet": 3257,
      "debits": 3258,
      "debited": 3259,
      "happenning": 3260,
      "portugal": 3261,
      "super": 3262,
      "supplementary": 3263,
      "orders": 3264,
      "recongize": 3265,
      "ainly": 3266,
      "early": 3267,
      "earliest": 3268,
      "reversion": 3269,
      "weekly": 3270,
      "diret": 3271,
      "ourg": 3272,
      "reasonable": 3273,
      "affect": 3274,
      "africa": 3275,
      "locker": 3276,
      "keeping": 3277,
      "surely": 3278,
      "mastercards": 3279,
      "directed": 3280,
      "phones": 3281,
      "afterno": 3282,
      "processors": 3283,
      "rental": 3284,
      "creditcard": 3285,
      "pertain": 3286,
      "perative": 3287,
      "percent": 3288,
      "perplexed": 3289,
      "plug": 3290,
      "placard": 3291,
      "platform": 3292,
      "plenty": 3293,
      "plainly": 3294,
      "reader": 3295,
      "readily": 3296,
      "mom": 3297,
      "moene": 3298,
      "movie": 3299,
      "modated": 3300,
      "arriving": 3301,
      "format": 3302,
      "misused": 3303,
      "mistook": 3304,
      "mistakes": 3305,
      "him": 3306,
      "kingdom": 3307,
      "supporting": 3308,
      "blocking": 3309,
      "differed": 3310,
      "freezing": 3311,
      "causes": 3312,
      "impossible": 3313,
      "imposed": 3314,
      "improperly": 3315,
      "imperative": 3316,
      "minor": 3317,
      "minors": 3318,
      "courier": 3319,
      "hadn": 3320,
      "costed": 3321,
      "costing": 3322,
      "costly": 3323,
      "couples": 3324,
      "recognition": 3325,
      "allows": 3326,
      "allowable": 3327,
      "allowances": 3328,
      "contanct": 3329,
      "issuing": 3330,
      "applepay": 3331,
      "updates": 3332,
      "mornings": 3333,
      "enetered": 3334,
      "avated": 3335,
      "serious": 3336,
      "interconvert": 3337,
      "internet": 3338,
      "beneficiair": 3339,
      "beneficiaries": 3340,
      "retted": 3341,
      "returning": 3342,
      "everytime": 3343,
      "everybody": 3344,
      "thoughts": 3345,
      "yesterdays": 3346,
      "licated": 3347,
      "license": 3348,
      "additionally": 3349,
      "mped": 3350,
      "sellers": 3351,
      "merchand": 3352,
      "denies": 3353,
      "errors": 3354,
      "supports": 3355,
      "deleting": 3356,
      "sourced": 3357,
      "sources": 3358,
      "matercard": 3359,
      "returnable": 3360,
      "locally": 3361,
      "sons": 3362,
      "ulations": 3363,
      "budget": 3364,
      "tempted": 3365,
      "buyer": 3366,
      "americans": 3367,
      "hoe": 3368,
      "hood": 3369,
      "holes": 3370,
      "rejects": 3371,
      "attemped": 3372,
      "condition": 3373,
      "wered": 3374,
      "weren": 3375,
      "understanfd": 3376,
      "personally": 3377,
      "boss": 3378,
      "boyfriend": 3379,
      "respect": 3380,
      "closer": 3381,
      "authorised": 3382,
      "authorizing": 3383,
      "authorization": 3384,
      "ager": 3385,
      "aggr": 3386,
      "walk": 3387,
      "walton": 3388,
      "offsp": 3389,
      "compatible": 3390,
      "complicated": 3391,
      "daughters": 3392,
      "meantime": 3393,
      "recived": 3394,
      "recieved": 3395,
      "recieving": 3396,
      "reciept": 3397,
      "preform": 3398,
      "premi": 3399,
      "sync": 3400,
      "figue": 3401,
      "systems": 3402,
      "achieve": 3403,
      "gather": 3404,
      "refusing": 3405,
      "refurn": 3406,
      "addressed": 3407,
      "addressing": 3408,
      "travels": 3409,
      "uctant": 3410,
      "cryto": 3411,
      "crying": 3412,
      "actuate": 3413,
      "disputable": 3414,
      "guards": 3415,
      "intended": 3416,
      "solved": 3417,
      "supposedly": 3418,
      "cryptocu": 3419,
      "chosen": 3420,
      "choosing": 3421,
      "lives": 3422,
      "iently": 3423,
      "stranded": 3424,
      "study": 3425,
      "atched": 3426,
      "approval": 3427,
      "appropri": 3428,
      "discrepan": 3429,
      "discuss": 3430,
      "restriction": 3431,
      "swiftly": 3432,
      "sake": 3433,
      "wouldnt": 3434,
      "discounted": 3435,
      "space": 3436,
      "spouses": 3437,
      "companys": 3438,
      "spectively": 3439,
      "cutoff": 3440,
      "swap": 3441,
      "swapped": 3442,
      "swallowing": 3443,
      "typical": 3444,
      "flow": 3445,
      "posting": 3446,
      "suddend": 3447,
      "kinds": 3448,
      "valued": 3449,
      "replacements": 3450,
      "reality": 3451,
      "expiry": 3452,
      "subject": 3453,
      "subtract": 3454,
      "substitut": 3455,
      "clears": 3456,
      "clearing": 3457,
      "!!!!!": 3458,
      "ideal": 3459,
      "reverts": 3460,
      "mostly": 3461,
      "regretted": 3462,
      "editing": 3463,
      "usuallt": 3464,
      "terminal": 3465,
      "terminating": 3466,
      "shocking": 3467,
      "goodness": 3468,
      "reflects": 3469,
      "??!!!": 3470,
      "obroad": 3471,
      "object": 3472,
      "homeward": 3473,
      "functions": 3474,
      "triple": 3475,
      "points": 3476,
      "heyy": 3477,
      "party": 3478,
      "paranoid": 3479,
      "requires": 3480,
      "listing": 3481,
      "vacationing": 3482,
      "market": 3483,
      "marital": 3484,
      "rances": 3485,
      "submitting": 3486,
      "billed": 3487,
      "delivering": 3488,
      "deliveries": 3489,
      "1818": 3490,
      "cloned": 3491,
      "clerk": 3492,
      "malfunctioning": 3493,
      "rowlock": 3494,
      "converting": 3495,
      "cious": 3496,
      "froze": 3497,
      "thankyou": 3498,
      "inital": 3499,
      "advised": 3500,
      "importance": 3501,
      "interbanks": 3502,
      "handful": 3503,
      "handling": 3504,
      "lower": 3505,
      "primary": 3506,
      "towards": 3507,
      "necessity": 3508,
      "logging": 3509,
      "shops": 3510,
      "finishing": 3511,
      "confiscated": 3512,
      "confusion": 3513,
      "concerning": 3514,
      "permissible": 3515,
      "frames": 3516,
      "initiating": 3517,
      "cular": 3518,
      "downsides": 3519,
      "grossly": 3520,
      "separably": 3521,
      "gling": 3522,
      "glasses": 3523,
      "strug": 3524,
      "encountering": 3525,
      "securing": 3526,
      "provider": 3527,
      "modified": 3528,
      "questionable": 3529,
      "followed": 3530,
      "calculate": 3531,
      "calculating": 3532,
      "incident": 3533,
      "desk": 3534,
      "descri": 3535,
      "descrip": 3536,
      "description": 3537,
      "signed": 3538,
      "significance": 3539,
      "modifying": 3540,
      "suspect": 3541,
      "starter": 3542,
      "starting": 3543,
      "impatient": 3544,
      "confirming": 3545,
      "airline": 3546,
      "airport": 3547,
      "brought": 3548,
      "hitting": 3549,
      "omg": 3550,
      "turned": 3551,
      "proofing": 3552,
      "visiting": 3553,
      "instantane": 3554,
      "talked": 3555,
      "suspend": 3556,
      "suspended": 3557,
      "basic": 3558,
      "drawl": 3559,
      "drawal": 3560,
      "drawled": 3561,
      "drawls": 3562,
      "print": 3563,
      "partly": 3564,
      "repeat": 3565,
      "reporting": 3566,
      "applicable": 3567,
      "loyal": 3568,
      "frustration": 3569,
      "preventing": 3570,
      "continuous": 3571,
      "increasing": 3572,
      "called": 3573,
      "sites": 3574,
      "sitting": 3575,
      "volume": 3576,
      "warn": 3577,
      "warning": 3578,
      "incurred": 3579,
      "incurring": 3580,
      "instruct": 3581,
      "retrieving": 3582,
      "retrieval": 3583,
      "session": 3584,
      "appreciated": 3585,
      "experience": 3586,
      "experienced": 3587,
      "approximate": 3588,
      "validation": 3589,
      "validity": 3590,
      "club": 3591,
      "desperate": 3592,
      "employment": 3593,
      "original": 3594,
      "originate": 3595,
      "origination": 3596,
      "originating": 3597,
      "accordingly": 3598,
      "occasion": 3599,
      "zero": 3600,
      "involve": 3601,
      "tranfers": 3602,
      "tranfering": 3603,
      "stupidly": 3604,
      "unexpectedly": 3605,
      "pops": 3606,
      "displayed": 3607,
      "suffer": 3608,
      "suffered": 3609,
      "periodically": 3610,
      "rewards": 3611,
      "rewarding": 3612,
      "presents": 3613,
      "refuses": 3614,
      "refills": 3615,
      "blue": 3616,
      "bags": 3617,
      "careful": 3618,
      "eaten": 3619,
      "patentp": 3620,
      "patiently": 3621,
      "inquire": 3622,
      "inquiry": 3623,
      "increments": 3624,
      "include": 3625,
      "relates": 3626,
      "reluctant": 3627,
      "membership": 3628,
      "notify": 3629,
      "notified": 3630,
      "unfortunate": 3631,
      "color": 3632,
      "throwing": 3633,
      "throwaway": 3634,
      "avoided": 3635,
      "responsible": 3636,
      "guidelines": 3637,
      "switched": 3638,
      "regularly": 3639,
      "manual": 3640,
      "britain": 3641,
      "protects": 3642,
      "protecting": 3643,
      "occurs": 3644,
      "investment": 3645,
      ":((": 3646,
      "borhood": 3647,
      "efficient": 3648,
      "greater": 3649,
      "greatest": 3650,
      "mix": 3651,
      "smartphone": 3652,
      "record": 3653,
      "recorded": 3654,
      "retailer": 3655,
      "trasfer": 3656,
      "trasnger": 3657,
      "loaded": 3658,
      "sucked": 3659,
      "shortly": 3660,
      "direction": 3661,
      "plans": 3662,
      "planned": 3663,
      "speeding": 3664,
      "safely": 3665,
      "safeguards": 3666,
      "claiming": 3667,
      "establishment": 3668,
      "establishments": 3669,
      "ridiculously": 3670,
      "difficult": 3671,
      "blurring": 3672,
      "electronically": 3673,
      "client": 3674,
      "circus": 3675,
      "genuin": 3676,
      "hindrances": 3677,
      "london": 3678,
      "mandatory": 3679,
      "naze": 3680,
      "slip": 3681,
      "slight": 3682,
      "slipped": 3683,
      "voided": 3684,
      "reinstated": 3685,
      "remained": 3686,
      "acquire": 3687,
      "leadtime": 3688,
      "havnt": 3689,
      "dispense": 3690,
      "dispensed": 3691,
      "dispatched": 3692,
      "contains": 3693,
      "contained": 3694,
      "digitally": 3695,
      "stealing": 3696,
      "indicate": 3697,
      "indicated": 3698,
      "indicates": 3699,
      "partial": 3700,
      "parties": 3701,
      "particular": 3702,
      "exorbitantly": 3703,
      "?!!?": 3704,
      "baby": 3705,
      "course": 3706,
      "courtries": 3707,
      "clarity": 3708,
      "clarify": 3709,
      "dude": 3710,
      "dual": 3711,
      "easy": 3712,
      "easiest": 3713,
      "equal": 3714,
      "equating": 3715,
      "flix": 3716,
      "flights": 3717,
      "grandson": 3718,
      "girls": 3719,
      "girlfriend": 3720,
      "japan": 3721,
      "japane": 3722,
      "laid": 3723,
      "panicking": 3724,
      "share": 3725,
      "shall": 3726,
      "tently": 3727,
      "vendor": 3728,
      "vendors": 3729,
      "wedding": 3730,
      "wednesday": 3731,
      "witdh": 3732,
      "witdrawal": 3733,
      "answered": 3734,
      "revive": 3735,
      "revieve": 3736,
      "remedied": 3737,
      "remedies": 3738,
      "represented": 3739,
      "representative": 3740,
      "assured": 3741,
      "assumed": 3742,
      "assignments": 3743,
      "belonging": 3744,
      "alteration": 3745,
      "exhange": 3746,
      "exhcange": 3747,
      "netflix": 3748,
      "pleased": 3749,
      "pleasure": 3750,
      "possession": 3751,
      "advertise": 3752,
      "teens": 3753,
      "teenager": 3754,
      "expedite": 3755,
      "expedition": 3756,
      "finalize": 3757,
      "finalized": 3758,
      "supply": 3759,
      "supplier": 3760,
      "caps": 3761,
      "capable": 3762,
      "residency": 3763,
      "residence": 3764,
      "obviously": 3765,
      "programme": 3766,
      "institution": 3767,
      "institutions": 3768,
      "incentives": 3769,
      "collecting": 3770,
      "greatly": 3771,
      "clicked": 3772,
      "circuit": 3773,
      "circumst": 3774,
      "generated": 3775,
      "generating": 3776,
      "reinstalling": 3777,
      "birthday": 3778,
      "birthdate": 3779,
      "anticipate": 3780,
      "anticipated": 3781,
      "australian": 3782,
      "break": 3783,
      "bertie": 3784,
      "bulk": 3785,
      "crad": 3786,
      "categor": 3787,
      "coffee": 3788,
      "cadilly": 3789,
      "caught": 3790,
      "crucial": 3791,
      "crunch": 3792,
      "darned": 3793,
      "dashboard": 3794,
      "durham": 3795,
      "drivers": 3796,
      "evidently": 3797,
      "flexible": 3798,
      "faulty": 3799,
      "furnish": 3800,
      "fishy": 3801,
      "fastest": 3802,
      "gpb": 3803,
      "gonna": 3804,
      "globally": 3805,
      "graphics": 3806,
      "greece": 3807,
      "huge": 3808,
      "joined": 3809,
      "luxemb": 3810,
      "loud": 3811,
      "life": 3812,
      "mastecard": 3813,
      "mcdonalds": 3814,
      "nandos": 3815,
      "pumped": 3816,
      "potentially": 3817,
      "pesos": 3818,
      "punched": 3819,
      "piccadilly": 3820,
      "parents": 3821,
      "passocde": 3822,
      "piece": 3823,
      "sorts": 3824,
      "survey": 3825,
      "sunglasses": 3826,
      "swear": 3827,
      "smooth": 3828,
      "school": 3829,
      "strict": 3830,
      "scammed": 3831,
      "tangible": 3832,
      "utilizing": 3833,
      "villa": 3834,
      "wanna": 3835,
      "waived": 3836,
      "tholepin": 3837,
      "annoying": 3838,
      "insight": 3839,
      "indonesia": 3840,
      "inadvertently": 3841,
      "insanely": 3842,
      "referted": 3843,
      "recurring": 3844,
      "redeposied": 3845,
      "revised": 3846,
      "remorse": 3847,
      "retrospectively": 3848,
      "revereted": 3849,
      "replenish": 3850,
      "revoked": 3851,
      "mysterious": 3852,
      "atrocious": 3853,
      "arranged": 3854,
      "english": 3855,
      "enjoy": 3856,
      "ordere": 3857,
      "organization": 3858,
      "traded": 3859,
      "canada": 3860,
      "transported": 3861,
      "transitions": 3862,
      "formula": 3863,
      "foriegn": 3864,
      "street": 3865,
      "stipulations": 3866,
      "accessible": 3867,
      "accpeted": 3868,
      "accommodated": 3869,
      "deferred": 3870,
      "depleted": 3871,
      "detect": 3872,
      "deeply": 3873,
      "demographics": 3874,
      "deserve": 3875,
      "departing": 3876,
      "whatsoever": 3877,
      "severely": 3878,
      "belgium": 3879,
      "exclusive": 3880,
      "excluding": 3881,
      "exhausted": 3882,
      "neighborhood": 3883,
      "robbing": 3884,
      "software": 3885,
      "verfiy": 3886,
      "unknowingly": 3887,
      "uninstall": 3888,
      "unsatisfactory": 3889,
      "unathorized": 3890,
      "university": 3891,
      "unbeknownst": 3892,
      "offices": 3893,
      "appiled": 3894,
      "amoutn": 3895,
      "atmosphere": 3896,
      "outlets": 3897,
      "outregous": 3898,
      "adjusted": 3899,
      "currecy": 3900,
      "currancy": 3901,
      "distressed": 3902,
      "decreasing": 3903,
      "redirected": 3904,
      "newborn": 3905,
      "probably": 3906,
      "suggested": 3907,
      "siphoned": 3908,
      "welcomed": 3909,
      "competent": 3910,
      "commission": 3911,
      "intoxicated": 3912,
      "afternoon": 3913,
      "percentage": 3914,
      "moeney": 3915,
      "contanctless": 3916,
      "beneficiairy": 3917,
      "merchandise": 3918,
      "aggravated": 3919,
      "offspring": 3920,
      "premium": 3921,
      "cryptocurency": 3922,
      "studying": 3923,
      "appropriate": 3924,
      "discrepancy": 3925,
      "suddendly": 3926,
      "substitute": 3927,
      "struggling": 3928,
      "described": 3929,
      "descriptions": 3930,
      "instantaneous": 3931,
      "occasions": 3932,
      "memberships": 3933,
      "genuinely": 3934,
      "japanese": 3935,
      "witdhrawals": 3936,
      "circumstances": 3937,
      "category": 3938,
      "luxembourg": 3939
    },
    "merges": [
      "t h",
      "a n",
      "i n",
      "r e",
      "t o",
      "m y",
      "o n",
      "o u",
      "a t",
      "th e",
      "a r",
      "e d",
      "i s",
      "e n",
      "w h",
      "a s",
      "e r",
      "in g",
      "i t",
      "ar d",
      "c ard",
      "o r",
      "c h",
      "t r",
      "a c",
      "o w",
      "c an",
      "d o",
      "m e",
      "g e",
      "l e",
      "h ow",
      "tr an",
      "l l",
      "ou n",
      "en t",
      "tran s",
      "on e",
      "a y",
      "w i",
      "f or",
      "u p",
      "v e",
      "s t",
      "ac c",
      "d e",
      "oun t",
      "wh at",
      "s e",
      "b e",
      "y ou",
      "o t",
      "f er",
      "a l",
      "trans fer",
      "h a",
      "acc ount",
      "wh y",
      "an d",
      "e s",
      "to p",
      "e x",
      "n e",
      "i d",
      "wi th",
      "r o",
      "t i",
      "w as",
      "k e",
      "c e",
      "m one",
      "mone y",
      "n ot",
      "m ent",
      "p ay",
      "ha ve",
      "s o",
      "ge t",
      "th at",
      "ch an",
      "i f",
      "p p",
      "the re",
      "ch ar",
      "at e",
      "l d",
      "u r",
      "v er",
      "m a",
      "b le",
      "th is",
      "u t",
      "chan ge",
      "pay ment",
      "u n",
      "ne ed",
      "o f",
      "p le",
      "f e",
      "l i",
      "a pp",
      "ou ld",
      "a m",
      "g h",
      "d id",
      "b ut",
      "p o",
      "on g",
      "c as",
      "cas h",
      "g o",
      "u s",
      "so me",
      "ro m",
      "f rom",
      "ac ti",
      "as e",
      "a re",
      "e re",
      "en d",
      "c o",
      "po s",
      "t a",
      "g ed",
      "ex change",
      "re n",
      "h as",
      "a w",
      "un d",
      "i c",
      "u se",
      "n ow",
      "at m",
      "with d",
      "char ged",
      "w or",
      "ou t",
      "ou gh",
      "f und",
      "ple ase",
      "r aw",
      "h e",
      "withd raw",
      "a ble",
      "wh en",
      "wh ere",
      "wor k",
      "a d",
      "c ur",
      "l in",
      "l o",
      "wi ll",
      "acti on",
      "fe e",
      "cur ren",
      "c t",
      "trans action",
      "i on",
      "an y",
      "s how",
      "be en",
      "c k",
      "end ing",
      "p ending",
      "t e",
      "l y",
      "curren c",
      "a ll",
      "ch e",
      "se e",
      "do es",
      "i r",
      "l ong",
      "re ce",
      "rece i",
      "char ge",
      "i ll",
      "t er",
      "w ould",
      "th ing",
      "an t",
      "l p",
      "he lp",
      "i ed",
      "ver if",
      "p in",
      "d ay",
      "ta ke",
      "o re",
      "st ill",
      "d is",
      "de c",
      "re d",
      "at ion",
      "ne w",
      "dec lin",
      "ma de",
      "ma ke",
      "w ant",
      "r i",
      "did n",
      "r ate",
      "e p",
      "t u",
      "k now",
      "p ro",
      "v ed",
      "d on",
      "q u",
      "ex p",
      "w r",
      "withdraw al",
      "g ot",
      "y e",
      "re fund",
      "wr ong",
      "che ck",
      "t ed",
      "i l",
      "declin ed",
      "card s",
      "tr a",
      "i es",
      "th r",
      "id ent",
      "tu al",
      "s u",
      "thr ough",
      "u st",
      "ti me",
      "re ct",
      "li ke",
      "v ir",
      "vir tual",
      "s h",
      "it y",
      "ad d",
      "tr ied",
      "a b",
      "s s",
      "te ll",
      "can ce",
      "us ing",
      "ex tra",
      "j ust",
      "a u",
      "m u",
      "ident ity",
      "dis pos",
      "ye t",
      "dispos able",
      "s i",
      "f in",
      "ac k",
      "es s",
      "sh ould",
      "p ur",
      "st ate",
      "some thing",
      "state ment",
      "an k",
      "you r",
      "t ing",
      "currenc ies",
      "pur ch",
      "verif y",
      "currenc y",
      "show ing",
      "w e",
      "p h",
      "wh i",
      "recei ved",
      "b ank",
      "c on",
      "ab out",
      "fund s",
      "qu e",
      "am ount",
      "work ing",
      "f ore",
      "go ing",
      "some one",
      "co m",
      "acti v",
      "the r",
      "o k",
      "th in",
      "de pos",
      "all y",
      "thin k",
      "depos it",
      "has n",
      "tr y",
      "a me",
      "g n",
      "is n",
      "ough t",
      "b ack",
      "pos si",
      "fin d",
      "c or",
      "cance l",
      "a il",
      "a go",
      "it e",
      "o ther",
      "cor rect",
      "m ore",
      "possi ble",
      "d er",
      "s to",
      "in to",
      "acc ep",
      "b y",
      "us ed",
      "as s",
      "m it",
      "ha pp",
      "get ting",
      "b it",
      "an ce",
      "f i",
      "v en",
      "mu ch",
      "gh t",
      "c ould",
      "transfer s",
      "recei ve",
      "a it",
      "li mit",
      "co de",
      "p e",
      "de bit",
      "purch ase",
      "c ess",
      "top p",
      "ver y",
      "fe es",
      "w ait",
      "happ en",
      "p or",
      "s up",
      "or der",
      "re c",
      "s ent",
      "ic ation",
      "z e",
      "see m",
      "a in",
      "e ar",
      "v is",
      "o p",
      "w ay",
      "re ver",
      "ar y",
      "oun d",
      "ch in",
      "time s",
      "activ ate",
      "m b",
      "we e",
      "re as",
      "wee k",
      "a ge",
      "b al",
      "ti on",
      "au to",
      "bal ance",
      "as ter",
      "d i",
      "c oun",
      "e ct",
      "lo ok",
      "verif ication",
      "com ple",
      "mb er",
      "f re",
      "ou r",
      "reas on",
      "a f",
      "lo ck",
      "day s",
      "ri ght",
      "ite m",
      "w on",
      "at ed",
      "le t",
      "ke ep",
      "co me",
      "lo st",
      "whi ch",
      "g i",
      "v i",
      "be fore",
      "su re",
      "m aster",
      "di rect",
      "to day",
      "ph one",
      "master card",
      "af ter",
      "d if",
      "p ass",
      "p ut",
      "y s",
      "b ought",
      "c a",
      "o ld",
      "re ss",
      "pro cess",
      "m any",
      "ren t",
      "c red",
      "l en",
      "ta il",
      "cred it",
      "p er",
      "th an",
      "as t",
      "vis a",
      "p l",
      "an other",
      "re ad",
      "the y",
      "de tail",
      "be ing",
      "che que",
      "e u",
      "m o",
      "ar ri",
      "for m",
      "sto len",
      "m is",
      "detail s",
      "m or",
      "s ay",
      "de li",
      "se t",
      "h i",
      "k ing",
      "transaction s",
      "f ail",
      "accep t",
      "ble m",
      "payment s",
      "pro blem",
      "sup por",
      "b lock",
      "n o",
      "que st",
      "read y",
      "does n",
      "dif fe",
      "al ready",
      "whi le",
      "fre e",
      "ca use",
      "i m",
      "v ing",
      "ha ven",
      "try ing",
      "f ri",
      "i re",
      "i ze",
      "charge s",
      "fri end",
      "m in",
      "re co",
      "transfer red",
      "cance ll",
      "c ou",
      "ha d",
      "co st",
      "show s",
      "cou ple",
      "f ic",
      "n ing",
      "ph ys",
      "diffe rent",
      "reco gn",
      "phys ic",
      "re quest",
      "all ow",
      "exp l",
      "g one",
      "n u",
      "le ss",
      "con t",
      "physic al",
      "w ent",
      "expl ain",
      "pl ac",
      "nu mber",
      "rec ent",
      "is su",
      "gi ve",
      "fic i",
      "wait ing",
      "purch as",
      "rever ted",
      "cancell ed",
      "be cause",
      "app le",
      "o ver",
      "up d",
      "at es",
      "mor ning",
      "in form",
      "i gn",
      "p a",
      "topp ing",
      "cont ac",
      "en e",
      "ma chin",
      "a v",
      "fore ign",
      "b ene",
      "h ere",
      "p ound",
      "t wi",
      "ou ble",
      "seem s",
      "twi ce",
      "s er",
      "s ame",
      "u re",
      "in ter",
      "lin e",
      "pass code",
      "bene fici",
      "s end",
      "re t",
      "go o",
      "exp ire",
      "b p",
      "g bp",
      "li er",
      "eu ro",
      "av ail",
      "ear lier",
      "avail able",
      "on line",
      "up s",
      "acc ess",
      "not ic",
      "deposit ed",
      "say s",
      "e very",
      "recogn ize",
      "inform ation",
      "t y",
      "it ion",
      "notic ed",
      "tr ies",
      "happen ed",
      "fail ed",
      "benefici ary",
      "r ates",
      "st er",
      "exp ect",
      "comple te",
      "u k",
      "th ought",
      "on ly",
      "ur n",
      "ye ster",
      "s in",
      "li c",
      "add ition",
      "coun try",
      "yester day",
      "sin ce",
      "m p",
      "t w",
      "in correct",
      "ll er",
      "se ller",
      "fi x",
      "l ast",
      "m er",
      "re ally",
      "ne ver",
      "fe w",
      "he ll",
      "check ed",
      "topp ed",
      "euro pe",
      "tw o",
      "issu e",
      "contac t",
      "addition al",
      "m ay",
      "was n",
      "request ed",
      "hell o",
      "c er",
      "d en",
      "f ir",
      "g ing",
      "h old",
      "r or",
      "er ror",
      "st e",
      "suppor t",
      "chan ged",
      "atm s",
      "l ti",
      "to o",
      "de le",
      "app ear",
      "lin k",
      "r ing",
      "s ing",
      "s our",
      "th ough",
      "plac e",
      "f r",
      "m at",
      "mu lti",
      "machin e",
      "multi ple",
      "e l",
      "k en",
      "wh o",
      "me ss",
      "ate ly",
      "ta in",
      "coun tries",
      "ret urn",
      "sour ce",
      "d one",
      "is t",
      "er i",
      "st ep",
      "li ed",
      "lo c",
      "op en",
      "arri ved",
      "dele te",
      "h our",
      "app lied",
      "allow ed",
      "s on",
      "u l",
      "pa id",
      "g le",
      "it s",
      "ve red",
      "so on",
      "op tion",
      "chin a",
      "goo gle",
      "st and",
      "vi ce",
      "purchas ed",
      "b u",
      "d ouble",
      "m ed",
      "n ation",
      "transfer ring",
      "ro ad",
      "exp ress",
      "deli vered",
      "inter nation",
      "contact less",
      "mess age",
      "step s",
      "f ound",
      "j ect",
      "te mp",
      "bu y",
      "0 0",
      "am eri",
      "ab road",
      "internation al",
      "ameri can",
      "h o",
      "r y",
      "s al",
      "re ject",
      "at temp",
      "the m",
      "tr ack",
      "un block",
      "con d",
      "accep ted",
      "min e",
      "sal ary",
      "f t",
      "w ere",
      "se cond",
      "are d",
      "und er",
      "week s",
      "per son",
      "recent ly",
      "c ame",
      "se ver",
      "chan ging",
      "ma king",
      "ic ally",
      "ser vice",
      "every thing",
      "sever al",
      "b o",
      "g ent",
      "re s",
      "re w",
      "as k",
      "ta king",
      "n ame",
      "ur gent",
      "un able",
      "any thing",
      "auto mat",
      "comple ted",
      "c lo",
      "at ing",
      "the se",
      "want ed",
      "au d",
      "keep s",
      "upd ate",
      "s aw",
      "ha ving",
      "with out",
      "need s",
      "arri ve",
      "mis sing",
      "fir st",
      "t en",
      "th or",
      "de red",
      "ass ist",
      "reject ed",
      "e ve",
      "e ven",
      "withd rew",
      "au thor",
      "a g",
      "can not",
      "exchange s",
      "tra ve",
      "el se",
      "ask ed",
      "w al",
      "ou s",
      "of f",
      "block ed",
      "im med",
      "immed i",
      "d au",
      "o se",
      "do ing",
      "gh ter",
      "ic k",
      "com p",
      "mis take",
      "cer tain",
      "clo se",
      "dau ghter",
      "d up",
      "or dered",
      "me an",
      "ex changing",
      "fi at",
      "rec i",
      "tion s",
      "suppor ted",
      "wal let",
      "dup lic",
      "e ared",
      "p re",
      "s y",
      "re set",
      "app eared",
      "fi g",
      "deli very",
      "free ze",
      "immedi ately",
      "ste m",
      "automat ically",
      "sy stem",
      "a ch",
      "g a",
      "re f",
      "re me",
      "work ed",
      "verif ied",
      "under stand",
      "re qu",
      "to ok",
      "is h",
      "long er",
      "verify ing",
      "ga ve",
      "i z",
      "m on",
      "u ll",
      "be li",
      "add ed",
      "add ress",
      "pound s",
      "trave l",
      "f o",
      "u ct",
      "withdraw ing",
      "show n",
      "expire s",
      "c le",
      "c ry",
      "ac tu",
      "pos ed",
      "curren t",
      "dis put",
      "limit s",
      "mon th",
      "beli eve",
      "b ro",
      "s pe",
      "on ce",
      "chan t",
      "got ten",
      "mo ved",
      "mer chant",
      "hour s",
      "actu ally",
      "2 0",
      "g u",
      "p to",
      "s top",
      "in t",
      "be t",
      "so l",
      "see ing",
      "qu ick",
      "si de",
      "sup posed",
      "upd ated",
      "europe an",
      "return ed",
      "ag ain",
      "fig ure",
      "cry pto",
      "ch o",
      "ti l",
      "li ve",
      "sto re",
      "look ing",
      "mo ve",
      "reme mber",
      "disput e",
      "a p",
      "i ent",
      "i ght",
      "s tran",
      "s wi",
      "in d",
      "at us",
      "tr ic",
      "st u",
      "st atus",
      "pay ing",
      "por t",
      "look s",
      "appear s",
      "person al",
      "bo th",
      "duplic ate",
      "b us",
      "i ld",
      "i red",
      "m ust",
      "at ch",
      "ch ild",
      "ow n",
      "un til",
      "app ro",
      "any where",
      "dis c",
      "withdrawal s",
      "happen ing",
      "friend s",
      "res tric",
      "iz ed",
      "stran ge",
      "i mu",
      "o d",
      "p ient",
      "s at",
      "w atch",
      "le ct",
      "need ed",
      "of fer",
      "wor d",
      "dis appeared",
      "should n",
      "com ing",
      "could n",
      "attemp ted",
      "swi ft",
      "restric tions",
      "imu m",
      "1 00",
      "c us",
      "d ate",
      "r ied",
      "s a",
      "v ic",
      "as ap",
      "se en",
      "would n",
      "pass word",
      "disc ount",
      "s p",
      "re st",
      "to mer",
      "id ay",
      "refund ed",
      "we en",
      "activ ating",
      "sto le",
      "won der",
      "comp any",
      "reci pient",
      "spe c",
      "bet ween",
      "cus tomer",
      "c u",
      "m ight",
      "n or",
      "s w",
      "us d",
      "ta ken",
      "check ing",
      "ty p",
      "bro ken",
      "wonder ing",
      "f l",
      "l iday",
      "re activate",
      "the n",
      "ar t",
      "is e",
      "de fin",
      "po st",
      "su d",
      "purchas es",
      "ser vic",
      "den ied",
      "hold ing",
      "ho liday",
      "cho ose",
      "defin ite",
      "servic es",
      "re ach",
      "tr ouble",
      "se pa",
      "ma x",
      "ma il",
      "any more",
      "recei ving",
      "declin ing",
      "ident if",
      "add ing",
      "ok ay",
      "hi gh",
      "no thing",
      "spec if",
      "sud den",
      "definite ly",
      "a ur",
      "k ind",
      "p ast",
      "u e",
      "v al",
      "in fo",
      "re place",
      "ment s",
      "ere d",
      "thing s",
      "qu ent",
      "fre quent",
      "say ing",
      "loc ation",
      "travel ing",
      "stu ck",
      "bus in",
      "rest aur",
      "restaur ant",
      ". .",
      "e ur",
      "p t",
      "re al",
      "do cu",
      "ent ered",
      "ex t",
      "declin e",
      "pro ve",
      "exp ir",
      "su b",
      "cle ar",
      "quick ly",
      "! !",
      "e ver",
      "f ull",
      "i de",
      "s ed",
      "in ste",
      "or d",
      "for got",
      "pro vi",
      "way s",
      "rever t",
      "mo st",
      "fr aud",
      "gu ys",
      "inste ad",
      "provi de",
      "re g",
      "re sol",
      "ed it",
      "didn t",
      "happen s",
      "process ed",
      "c re",
      "f ast",
      "f ul",
      "l and",
      "le ft",
      "pp ing",
      "ma ll",
      "us u",
      "ter min",
      "sh o",
      "we ll",
      "machin es",
      "goo d",
      "expect ed",
      "urgent ly",
      "author ized",
      "ref lect",
      "fl at",
      "max imum",
      "sudden ly",
      "3 0",
      "? ?",
      "c cess",
      "c tion",
      "l f",
      "l ar",
      "o b",
      "account s",
      "aw ay",
      "su ccess",
      "child ren",
      "s ending",
      "ac tual",
      "de al",
      "se lf",
      "al so",
      "po lic",
      "fin e",
      "activ ated",
      "happ y",
      "gi ven",
      "ho me",
      "1 0",
      "f un",
      "i ve",
      "r u",
      "re move",
      "tr i",
      "do ll",
      "app ly",
      "po int",
      "aw are",
      "he y",
      "withdraw n",
      "requ ired",
      "sa id",
      "doll ar",
      "d uct",
      "n ext",
      "p ar",
      "s ion",
      "t s",
      "re port",
      "ac ation",
      "st ay",
      "ur ing",
      "un authorized",
      "pro duct",
      "don t",
      "con fir",
      "activ ation",
      "over charged",
      "ty pe",
      "author ize",
      "requ ire",
      "specif ic",
      "sho pping",
      "fun ction",
      "d ed",
      "i ce",
      "l is",
      "l ord",
      "o ple",
      "s he",
      "s topped",
      "v acation",
      "my self",
      "is ed",
      "en ough",
      "how ever",
      "acc ident",
      "al ways",
      "ex changed",
      "work s",
      "recei ver",
      "pe ople",
      "rever sed",
      "item s",
      "contac ted",
      "appro ved",
      "location s",
      "land lord",
      "lar ge",
      "d y",
      "f am",
      "k es",
      "k id",
      "m ar",
      "n ed",
      "r an",
      "st art",
      "ke t",
      "ur day",
      "go es",
      "withdraw l",
      "pro g",
      "cancel ed",
      "vi ous",
      "fail ing",
      "recogn ise",
      "plac es",
      "loc ated",
      "track ing",
      "sat urday",
      "docu ments",
      "sub mit",
      "resol ve",
      "lis ted",
      "fam i",
      "kid s",
      "b ill",
      "c ed",
      "d uring",
      "f ar",
      "g ged",
      "h ot",
      "m an",
      "p ret",
      "in st",
      "to ld",
      "what s",
      "top up",
      "with in",
      "fe red",
      "wor ried",
      "know n",
      "vi e",
      "deli ver",
      "problem s",
      "buy ing",
      "bo dy",
      "assist ance",
      "identif ication",
      "busin ess",
      "cre ate",
      "usu ally",
      "ob tain",
      "success ful",
      "hot el",
      "pret ty",
      "1 8",
      "c l",
      "h er",
      "m al",
      "p ull",
      "r a",
      "r ow",
      "is f",
      "ent er",
      "se as",
      "ke pt",
      "some body",
      "are n",
      "qu ite",
      "check s",
      "con ver",
      "plac ed",
      "over seas",
      "fr ance",
      "option s",
      "pre vious",
      "sat isf",
      "reg ard",
      "polic y",
      "mar ried",
      "prog ress",
      "vie w",
      "b ad",
      "c i",
      "f ro",
      "g age",
      "l ist",
      "r un",
      "t gage",
      "th ank",
      "in it",
      "the ir",
      "ac t",
      "st ed",
      "se s",
      "not ice",
      "char ging",
      "rom ised",
      "ta ble",
      "ta kes",
      "ad vis",
      "pro ced",
      "mu gged",
      "statement s",
      "vi a",
      "pl ay",
      "mor tgage",
      "im port",
      "inter bank",
      "may be",
      "uct ed",
      "nor mall",
      "nor mal",
      "frequent ly",
      "ded ucted",
      "satisf ied",
      "proced ure",
      "normall y",
      "5 00",
      "d ue",
      "e st",
      "h and",
      "i g",
      "l ow",
      "p ri",
      "r us",
      "to w",
      "at ure",
      "it ed",
      "or t",
      "ne cess",
      "fe ature",
      "ere sted",
      "out side",
      "lo g",
      "ir d",
      "exp ired",
      "sh op",
      "fin ish",
      "con f",
      "con cer",
      "correct ly",
      "rever se",
      "look ed",
      "reason s",
      "direct ly",
      "per mis",
      "issu ed",
      "fr ame",
      "ul ent",
      "comp romised",
      "month s",
      "int erested",
      "od d",
      "typ es",
      "replace ment",
      "ide a",
      "fraud ulent",
      "ru ble",
      "init i",
      "advis e",
      "import ant",
      "c ul",
      "d own",
      "g ro",
      "i ous",
      "j ac",
      "z en",
      "th od",
      "re su",
      "re moved",
      "to mor",
      "can t",
      "me thod",
      "se par",
      "sh i",
      "credit ed",
      "loc ate",
      "cle ared",
      "current ly",
      "sw allowed",
      "expir ing",
      "expir ation",
      "termin ate",
      "accident ally",
      "fro zen",
      "tow n",
      "necess ary",
      "permis sion",
      "jac ket",
      "resu l",
      "tomor row",
      "? !",
      "c ar",
      "c al",
      "g l",
      "g as",
      "s tr",
      "t al",
      "v id",
      "w ish",
      "th ose",
      "en c",
      "ac e",
      "do m",
      "ll ow",
      "st ates",
      "se cur",
      "ne ar",
      "un lock",
      "of ten",
      "po se",
      "some where",
      "pro vid",
      "si an",
      "fore ver",
      "per form",
      "mo dif",
      "quest ion",
      "cont in",
      "issu es",
      "stand ard",
      "pre fer",
      "fo llow",
      "identif y",
      ".. .",
      "rus sian",
      "gro cer",
      "cal cul",
      "e ach",
      "l ot",
      "o l",
      "in c",
      "to ry",
      "at ive",
      "tr ace",
      "de s",
      "es ses",
      "un successful",
      "ren ce",
      "fee l",
      "show ed",
      "ter n",
      "si gn",
      "we ird",
      "accep table",
      "rec all",
      "automat ic",
      "duplic ated",
      "sp ain",
      "post ed",
      "high er",
      "busin esses",
      "ran dom",
      "conver t",
      "concer ned",
      "secur ity",
      "modif y",
      "e mp",
      "f f",
      "f ac",
      "h is",
      "l ed",
      "l ate",
      "s us",
      "v ent",
      "re view",
      "it ch",
      "one s",
      "st ar",
      "acc ur",
      "al right",
      "of fici",
      "of fered",
      "li ar",
      "ri ble",
      "gi ving",
      "set ting",
      "im p",
      "min d",
      "min imum",
      "cost s",
      "inter val",
      "expect ing",
      "fix ed",
      "attemp ting",
      "unblock ed",
      "clear ly",
      "confir m",
      "confir med",
      "fami liar",
      "ra ther",
      "pri ce",
      "conf used",
      "method s",
      "calcul ated",
      "accur ate",
      "offici al",
      "interval s",
      "a ir",
      "b r",
      "c ri",
      "f ut",
      "h it",
      "h al",
      "h id",
      "h ill",
      "o m",
      "o id",
      "s mall",
      "s ort",
      "t urn",
      "re e",
      "as so",
      "er ate",
      "tr o",
      "le s",
      "for gotten",
      "not ting",
      "us tr",
      "co p",
      "recei pt",
      "pro of",
      "pro ving",
      "ye ar",
      "possi b",
      "find ing",
      "vis it",
      "op erate",
      "lock ed",
      "let ting",
      "come s",
      "put ting",
      "ress ion",
      "accept s",
      "sing le",
      "attemp ts",
      "discount s",
      "typ ically",
      "docu ment",
      "full y",
      "submit ted",
      "inst ant",
      "pull ed",
      "previous ly",
      "regard s",
      "tal k",
      "his tory",
      "sus p",
      "imp ression",
      "fut ure",
      "hal f",
      "hid den",
      "b as",
      "c ity",
      "c tions",
      "d raw",
      "f ill",
      "f aster",
      "h ou",
      "p r",
      "p art",
      "r id",
      "s ite",
      "t le",
      "y oun",
      "re pe",
      "re por",
      "me tro",
      "ll ing",
      "se lect",
      "al tern",
      "ex act",
      "ro ss",
      "get s",
      "un sure",
      "un known",
      "un ited",
      "app lic",
      "us a",
      "acti ve",
      "are a",
      "lo y",
      "che qu",
      "ation s",
      "pro per",
      "ack ed",
      "we b",
      "con figure",
      "deposit ing",
      "isn t",
      "fi ve",
      "limit ed",
      "order ing",
      "won t",
      "pass ed",
      "ca using",
      "diffe rence",
      "number s",
      "appear ing",
      "fr ustr",
      "mat ter",
      "loc al",
      "res ident",
      "trave lling",
      "close st",
      "pre vent",
      "bro ke",
      "real ize",
      "reflect ed",
      "fami ly",
      "ci ated",
      "contin u",
      "inc reas",
      "star ted",
      "cri p",
      "asso ciated",
      "hou se",
      "altern ative",
      "chequ es",
      "- -",
      "c all",
      "g er",
      "l it",
      "n on",
      "o to",
      "s it",
      "v ol",
      "w ar",
      "x im",
      "in cur",
      "in str",
      "re tri",
      "to n",
      "on to",
      "at er",
      "er y",
      "or ig",
      "up set",
      "acc ord",
      "de termin",
      "se ss",
      "be st",
      "ot e",
      "al though",
      "al most",
      "ti c",
      "ce ed",
      "pay check",
      "pp ed",
      "ut es",
      "un happy",
      "app reci",
      "ic ious",
      "ir ing",
      "ter rible",
      "exp eri",
      "ph oto",
      "other s",
      "accep ting",
      "ca used",
      "min utes",
      "purchas ing",
      "ty po",
      "stand ing",
      "reme ly",
      "sol ve",
      "crypto currency",
      "appro xim",
      "sp are",
      "sp ite",
      "mail ed",
      "val id",
      "ext remely",
      "resol ved",
      "man age",
      "cl u",
      "enter ing",
      "regard ing",
      "thank s",
      "separ ately",
      "resul ts",
      "des per",
      "emp loy",
      "fac ing",
      "cop y",
      "year s",
      "document ation",
      "susp icious",
      "repe ated",
      "repor ted",
      "exact ly",
      "applic ation",
      "proper ly",
      "web site",
      "increas ed",
      "crip tion",
      "lit tle",
      "orig in",
      "accord ing",
      "a us",
      "c ent",
      "c es",
      "c ross",
      "e mb",
      "f air",
      "h acked",
      "i od",
      "l ay",
      "l ater",
      "m ote",
      "o c",
      "o in",
      "p ack",
      "p ick",
      "s en",
      "s cription",
      "u ctions",
      "z er",
      "in vol",
      "re mote",
      "ar ound",
      "is ting",
      "ch ed",
      "ge st",
      "tran fer",
      "trans fered",
      "for th",
      "up id",
      "st upid",
      "de vice",
      "de spite",
      "de lay",
      "ex ceed",
      "ne are",
      "ti red",
      "un expected",
      "un familiar",
      "need ing",
      "po p",
      "wor ld",
      "he ard",
      "any way",
      "dis play",
      "thr u",
      "su f",
      "fin ally",
      "deposit s",
      "sto res",
      "fi le",
      "sup pose",
      "comple ting",
      "gi ble",
      "dif fic",
      "per iod",
      "set up",
      "cancell ing",
      "cancell ation",
      "less er",
      "explain ing",
      "benefici ery",
      "euro s",
      "every where",
      "incorrect ly",
      "link ed",
      "open ing",
      "reject ing",
      "attemp t",
      "rew ard",
      "pre sent",
      "ref use",
      "ref ill",
      "ref used",
      "20 18",
      "gu ess",
      "bet ter",
      "real ized",
      "sub scription",
      "usu al",
      "success fully",
      "polic ies",
      "ru les",
      "tri a",
      "dollar s",
      "stay s",
      "require ments",
      "finish ed",
      "shi pped",
      "provid ed",
      "grocer y",
      "grocer ies",
      "late st",
      "possib ly",
      "alternative s",
      "instr uctions",
      "appreci ate",
      "photo s",
      "approxim ately",
      "desper ately",
      "employ er",
      "aus tria",
      "neare st",
      "a ged",
      "a he",
      "b l",
      "b ag",
      "c are",
      "d a",
      "e i",
      "e at",
      "e li",
      "e con",
      "e ther",
      "g y",
      "i ma",
      "i ble",
      "m ple",
      "n ight",
      "p on",
      "p at",
      "r ass",
      "t un",
      "v an",
      "w ard",
      "in ve",
      "in qu",
      "in side",
      "in cre",
      "in clu",
      "re l",
      "ar rass",
      "wh ether",
      "as king",
      "er s",
      "it zer",
      "or ted",
      "me mber",
      "ge s",
      "for tun",
      "up on",
      "st ating",
      "de ter",
      "de activate",
      "ot ect",
      "al ong",
      "ex isting",
      "not if",
      "change s",
      "un ch",
      "un usual",
      "un fortun",
      "fe ct",
      "li ving",
      "app ed",
      "app oin",
      "cas e",
      "end ed",
      "co l",
      "he ar",
      "dis satisfied",
      "dis appoin",
      "refund s",
      "thr ow",
      "su ch",
      "au then",
      "si mp",
      "si mple",
      "pur pose",
      "your s",
      "bank s",
      "activ ity",
      "think ing",
      "old er",
      "process ing",
      "read able",
      "form s",
      "no where",
      "im ated",
      "allow ing",
      "upd ating",
      "av oid",
      "access ed",
      "den y",
      "mat ch",
      "mess ed",
      "ul ar",
      "ho pe",
      "res pon",
      "iz ing",
      "gu ide",
      "side s",
      "stu ff",
      "appro ve",
      "sw itch",
      "sw itzer",
      "typ ed",
      "specif ied",
      "val ue",
      "reg ular",
      "tri p",
      "product s",
      "bill ing",
      "man u",
      "est imated",
      "initi ated",
      "separ ate",
      "gl itch",
      "enc ing",
      "provid ing",
      "follow ing",
      "br it",
      "om ic",
      "pr otect",
      "war ned",
      "retri eve",
      "determin ed",
      "experi encing",
      "cent re",
      "emb arrass",
      "oc cur",
      "pack age",
      "invol ved",
      "exceed ed",
      "ahe ad",
      "ei ther",
      "eli gible",
      "econ omic",
      "gy m",
      "ima ges",
      "inve st",
      "deter mine",
      "disappoin ted",
      "authen tic",
      "simp ly",
      "switzer land",
      "\" ,",
      ": (",
      "a k",
      "a im",
      "b or",
      "b ay",
      "b ase",
      "b unch",
      "c tr",
      "c ure",
      "c ket",
      "d in",
      "d ing",
      "d run",
      "e f",
      "e le",
      "e ly",
      "e mail",
      "f ur",
      "f act",
      "g th",
      "g re",
      "h ard",
      "h op",
      "i ly",
      "i mb",
      "l ish",
      "m i",
      "m art",
      "s ad",
      "s pending",
      "s low",
      "s mart",
      "t ly",
      "u red",
      "u ation",
      "u tion",
      "w d",
      "th ree",
      "an ces",
      "in put",
      "re new",
      "re cor",
      "re tail",
      "re side",
      "re imb",
      "to r",
      "on t",
      "ou tra",
      "en able",
      "as sess",
      "ch ose",
      "tr as",
      "tr apped",
      "ge ous",
      "for get",
      "for table",
      "for ward",
      "de activated",
      "de part",
      "se cure",
      "be sides",
      "transfer ing",
      "pay ed",
      "ma in",
      "un aware",
      "li ce",
      "app aren",
      "po cket",
      "po lice",
      "aw ait",
      "ic ul",
      "use s",
      "lo ad",
      "any one",
      "dec ide",
      "su ck",
      "sh ort",
      "ab lish",
      "tell ing",
      "bank ing",
      "com fortable",
      "hasn t",
      "cancel ing",
      "fi ce",
      "limit ations",
      "week end",
      "di rec",
      "look up",
      "comple tion",
      "won dered",
      "len gth",
      "pl an",
      "mis placed",
      "recogn izing",
      "send s",
      "access ing",
      "complete ly",
      "sing ton",
      "fr ont",
      "ken sington",
      "clo sed",
      "author ise",
      "ous ly",
      "reci eve",
      "fig ured",
      "ish ed",
      "uct ure",
      "spe ed",
      "cho ice",
      "sa fe",
      "sp end",
      "reach ed",
      "reach es",
      "stay ing",
      "function ing",
      "man aged",
      "cl aim",
      "pull ing",
      "conver sion",
      "run ning",
      "est ablish",
      "ig ate",
      "ruble s",
      "initi al",
      "shi p",
      "resul t",
      "car ry",
      "gl are",
      "str ucture",
      "enc y",
      "near ly",
      "perform ed",
      "question s",
      "contin ue",
      "review ing",
      "setting s",
      "turn s",
      "bas is",
      "rid icul",
      "youn g",
      "youn gest",
      "select ed",
      "frustr ated",
      "sit uation",
      "valid ate",
      "repeated ly",
      "display ing",
      "diffic ul",
      "bl ur",
      "van ished",
      "incre ase",
      "unfortun ately",
      "manu ally",
      "brit ish",
      "occur red",
      "invest igate",
      "ctr on",
      "ele ctron",
      "fur ther",
      "hop ing",
      "reimb ur",
      "outra geous",
      "apparen tly",
      "await ing",
      "\" ?",
      ". ?",
      "1 l",
      "2 00",
      "8 0",
      "a while",
      "b i",
      "b and",
      "b ig",
      "c y",
      "c li",
      "c ir",
      "c que",
      "d s",
      "d am",
      "e ved",
      "e ating",
      "f al",
      "g en",
      "g ency",
      "h or",
      "h ind",
      "i p",
      "i al",
      "k new",
      "l on",
      "m and",
      "n a",
      "n er",
      "o h",
      "p end",
      "s li",
      "s che",
      "s orted",
      "u m",
      "u ly",
      "u ff",
      "v n",
      "v ar",
      "v oid",
      "y o",
      "£ .",
      "th ird",
      "an g",
      "an sw",
      "re inst",
      "re placed",
      "re main",
      "to ge",
      "to ta",
      "to tal",
      "ar ning",
      "en se",
      "en sure",
      "er t",
      "er ing",
      "ing ly",
      "it self",
      "or s",
      "or bit",
      "tr uly",
      "ac qu",
      "me al",
      "le ad",
      "le ast",
      "le arning",
      "ll y",
      "ent ire",
      "for d",
      "be come",
      "al ert",
      "ha vn",
      "ex orbit",
      "id ed",
      "ti m",
      "ti ll",
      "un ion",
      "un supported",
      "un limited",
      "fe rence",
      "app s",
      "us er",
      "us able",
      "co ver",
      "co ol",
      "ic a",
      "withdraw s",
      "ad ress",
      "lo se",
      "che cque",
      "dis p",
      "dec ided",
      "want s",
      "know led",
      "pro file",
      "exp edit",
      "il ity",
      "su m",
      "sh ut",
      "si ble",
      "con tain",
      "con figured",
      "ame x",
      "correct ed",
      "seem ed",
      "ear th",
      "vis ited",
      "vis ible",
      "age s",
      "di g",
      "af ford",
      "before hand",
      "mo ment",
      "mo bi",
      "arri val",
      "fail ure",
      "doesn t",
      "reco ver",
      "recogn ized",
      "nu mer",
      "give s",
      "fici ent",
      "ste al",
      "dele ted",
      "message s",
      "00 0",
      "unblock ing",
      "second s",
      "arrive s",
      "ag ree",
      "else where",
      "immedi ate",
      "certain ly",
      "mean s",
      "fig uring",
      "understand ing",
      "month ly",
      "spe ak",
      "sol ution",
      "quick er",
      "ind ic",
      "couldn t",
      "sa ving",
      "vic tim",
      "customer s",
      "fl uff",
      "holding s",
      "reach ing",
      "trouble sho",
      "high est",
      "real ised",
      "apply ing",
      "par ti",
      "accident ly",
      "obtain ed",
      "obtain ing",
      "ra ise",
      "hand le",
      "log in",
      "shi pping",
      "near by",
      "unlock ed",
      "emp ty",
      "fac tor",
      "br and",
      "receipt s",
      "possib ility",
      "bas ed",
      "fill ing",
      "frustr ating",
      "resident s",
      "continu ously",
      "ger many",
      "sen se",
      "delay ed",
      "reward ed",
      "da ily",
      "pat tern",
      "inqu iring",
      "rel ated",
      "notif ication",
      "embarrass ed",
      "authentic ate",
      "din ner",
      "retail ers",
      "assess ed",
      "suck s",
      "direc tions",
      "ridicul ous",
      "difficul ty",
      "electron ic",
      "dam n",
      "fal se",
      "hor rible",
      "sche me",
      "var ious",
      "answ er",
      "toge ther",
      "tota lly",
      "exorbit ant",
      "knowled ge",
      "expedit ed",
      "mobi le",
      "numer ous",
      "fluff y",
      "troublesho ot",
      "! ?",
      "\" .",
      ", .",
      "3 d",
      "4 0",
      "5 x",
      "? !!",
      "a ver",
      "b ir",
      "b ab",
      "b ring",
      "b ran",
      "b led",
      "c at",
      "c ut",
      "c ation",
      "c our",
      "c lar",
      "c ited",
      "d u",
      "d ou",
      "d at",
      "d le",
      "d ent",
      "e as",
      "e qu",
      "e ving",
      "e mer",
      "f id",
      "f li",
      "f are",
      "f its",
      "g r",
      "g ir",
      "g ain",
      "g row",
      "h ed",
      "h ate",
      "h ur",
      "h us",
      "h und",
      "i e",
      "j our",
      "j ap",
      "j ob",
      "k ip",
      "l a",
      "l s",
      "m id",
      "m end",
      "m other",
      "m por",
      "m arri",
      "n one",
      "o s",
      "o pin",
      "p an",
      "p ed",
      "p us",
      "p rom",
      "p enc",
      "r am",
      "r out",
      "s ha",
      "s id",
      "s ick",
      "s cre",
      "s ched",
      "s kip",
      "t ent",
      "t ank",
      "t acked",
      "u g",
      "u le",
      "u lti",
      "u ci",
      "v end",
      "v ance",
      "w ed",
      "w it",
      "w ise",
      "y or",
      "z ing",
      "an e",
      "an s",
      "an ti",
      "an ation",
      "in complete",
      "in coming",
      "in accurate",
      "re com",
      "re vi",
      "re med",
      "re active",
      "re present",
      "on ed",
      "at ta",
      "en ce",
      "en ab",
      "en si",
      "as te",
      "as su",
      "as sign",
      "er ica",
      "ard s",
      "or ate",
      "tr act",
      "ac ross",
      "le ge",
      "ent ity",
      "ent ive",
      "trans cation",
      "ve re",
      "st ations",
      "de fect",
      "de mand",
      "se es",
      "se ction",
      "be long",
      "be hind",
      "al ter",
      "ha e",
      "ha vent",
      "es day",
      "ex h",
      "ex tras",
      "ex cited",
      "ne t",
      "ne y",
      "ne ct",
      "ro ll",
      "ro om",
      "ke ts",
      "not e",
      "pay roll",
      "if y",
      "ver s",
      "ma ged",
      "ma kes",
      "ut ely",
      "un less",
      "un satisfied",
      "un necessary",
      "un acceptable",
      "un successfully",
      "of ed",
      "of fice",
      "ple as",
      "am erica",
      "but ed",
      "but ton",
      "go d",
      "go ofed",
      "us ers",
      "some how",
      "are as",
      "co vered",
      "pos sess",
      "aw ful",
      "ic es",
      "ic king",
      "wor th",
      "out going",
      "he ld",
      "when ever",
      "where s",
      "ad ver",
      "ad vance",
      "lin king",
      "lo ve",
      "lo ose",
      "te en",
      "te mpor",
      "help ful",
      "pin s",
      "dis able",
      "dis appear",
      "dis tri",
      "want ing",
      "qu it",
      "exp ed",
      "exp ensi",
      "time frame",
      "sh orted",
      "ab sol",
      "ab orate",
      "si ze",
      "fin al",
      "something s",
      "con sent",
      "con sid",
      "con nect",
      "other wise",
      "sto red",
      "mit ted",
      "pe ct",
      "wait ed",
      "sup p",
      "seem ingly",
      "week days",
      "af ra",
      "ca p",
      "per mitted",
      "pl s",
      "mo ving",
      "mis taken",
      "fail s",
      "physic ally",
      "allow ance",
      "expl anation",
      "explain ed",
      "inform ed",
      "inform ing",
      "bene fits",
      "notic ing",
      "every day",
      "fix ing",
      "wasn t",
      "fr iday",
      "el aborate",
      "internation ally",
      "track ed",
      "bo ard",
      "res id",
      "name s",
      "clo sing",
      "ten ure",
      "off s",
      "mean ing",
      "pre ference",
      "reset ting",
      "ach ing",
      "requ iring",
      "iz ation",
      "beli eved",
      "disput ing",
      "merchant s",
      "swi ped",
      "ind entity",
      "stu dent",
      "appro aching",
      "shouldn t",
      "sa le",
      "sa ved",
      "recipient s",
      "spec ial",
      "sw allow",
      "typ ing",
      "fl ag",
      "holiday s",
      "high ly",
      "specif y",
      "specif ically",
      "pt ly",
      "!! !",
      "ide as",
      "reg ain",
      "termin ated",
      "good s",
      "reflect ing",
      "?? ?",
      "lar ger",
      "ob vious",
      "home town",
      "stay ed",
      "require ment",
      "function al",
      "prog ram",
      "inst it",
      "inst ances",
      "cl ue",
      "ci p",
      "ci al",
      "hand s",
      "hand led",
      "pri or",
      "rus h",
      "conf using",
      "concer n",
      "fraudulent ly",
      "initi ate",
      "initi ally",
      "resul ted",
      "unlock ing",
      "prefer red",
      "... ?",
      "inc entive",
      "random ly",
      "review ed",
      "cop ied",
      "instant ly",
      "pr ices",
      "continu es",
      "continu ally",
      "call ing",
      "determin ing",
      "tic kets",
      "origin ally",
      "fair ly",
      "remote ly",
      "tranfer red",
      "tranfer ring",
      "suf fice",
      "suf ficient",
      "diffic ulti",
      "refill ed",
      "da maged",
      "eat s",
      "inclu ded",
      "inclu ding",
      "col lect",
      "col lege",
      "hear ing",
      "deny ing",
      "respon d",
      "respon se",
      "embarrass ing",
      "authentic ation",
      "bor a",
      "drun k",
      "drun ken",
      "ef fect",
      "gre at",
      "mi les",
      "renew ed",
      "recor ds",
      "depart ment",
      "weekend s",
      "plan ning",
      "reimbur se",
      "reimbur sed",
      "cli ck",
      "cir cu",
      "gen er",
      "lon gest",
      "ang ry",
      "reinst all",
      "remain der",
      "acqu iring",
      "entire ly",
      "dig its",
      "agree ment",
      "saving s",
      "factor s",
      "aver age",
      "bir th",
      "bran ch",
      "dou bled",
      "dat a",
      "emer gency",
      "fid uci",
      "gain ed",
      "grow ing",
      "hur ry",
      "hus band",
      "hund red",
      "jour ney",
      "mid dle",
      "marri age",
      "opin ion",
      "pus hed",
      "prom ptly",
      "penc il",
      "rout e",
      "scre en",
      "sched ule",
      "yor k",
      "anti cip",
      "recom mend",
      "atta ched",
      "enab led",
      "tempor ary",
      "distri buted",
      "expensi ve",
      "absol utely",
      "consid ering",
      "afra id",
      "mistaken ly",
      "difficulti es",
      "fiduci ary",
      ") ,",
      ", \"",
      ". \"",
      ". )",
      "1 2",
      "1 3",
      "1 5",
      "1 6",
      "1 7",
      "1 9",
      "1 st",
      "4 5",
      "5 0",
      "6 0",
      "? \"",
      "? .",
      "] ?",
      "a i",
      "a card",
      "a ving",
      "a hold",
      "a gent",
      "a thor",
      "a tory",
      "a ustr",
      "a throw",
      "b b",
      "b re",
      "b ed",
      "b er",
      "b ate",
      "b ough",
      "b ally",
      "b ul",
      "b reach",
      "c r",
      "c one",
      "c de",
      "c ate",
      "c change",
      "c of",
      "c am",
      "c ad",
      "c don",
      "c au",
      "c ated",
      "c ru",
      "c enter",
      "c run",
      "d h",
      "d p",
      "d ar",
      "d as",
      "d get",
      "d ur",
      "d end",
      "d ri",
      "d ies",
      "d ated",
      "d ress",
      "d ates",
      "e e",
      "e v",
      "e y",
      "e ta",
      "e val",
      "e ctions",
      "e bay",
      "e cchange",
      "f c",
      "f d",
      "f an",
      "f le",
      "f au",
      "f urn",
      "f tw",
      "f ish",
      "f actual",
      "f aste",
      "g p",
      "g an",
      "g in",
      "g on",
      "g it",
      "g or",
      "g ge",
      "g al",
      "g lo",
      "g ating",
      "g ra",
      "g ree",
      "h u",
      "h were",
      "h ang",
      "h board",
      "i i",
      "i an",
      "i in",
      "i ot",
      "i gh",
      "i rect",
      "i cance",
      "i ally",
      "i eve",
      "i kes",
      "i est",
      "i ef",
      "i vers",
      "j o",
      "j or",
      "j oin",
      "j ections",
      "k icking",
      "l u",
      "l ou",
      "l ing",
      "l ke",
      "l if",
      "l ack",
      "l com",
      "l ame",
      "l gi",
      "l friend",
      "l ty",
      "l unch",
      "m s",
      "m t",
      "m st",
      "m ary",
      "m aste",
      "m cdon",
      "n c",
      "n an",
      "n ess",
      "n ative",
      "n ger",
      "n esday",
      "n fc",
      "o th",
      "o le",
      "o ve",
      "o ke",
      "o sing",
      "p u",
      "p ing",
      "p ot",
      "p al",
      "p es",
      "p un",
      "p ic",
      "p len",
      "p aren",
      "p romised",
      "p asso",
      "p ie",
      "r ise",
      "r ica",
      "s an",
      "s or",
      "s can",
      "s le",
      "s ur",
      "s un",
      "s we",
      "s ound",
      "s mo",
      "s topping",
      "s hell",
      "s cho",
      "s tric",
      "s ses",
      "s cam",
      "t f",
      "t an",
      "t up",
      "t ress",
      "t ise",
      "t ered",
      "t ended",
      "u in",
      "u ed",
      "u me",
      "u ti",
      "u tions",
      "u known",
      "u ched",
      "v r",
      "v ill",
      "v ok",
      "w an",
      "w en",
      "w ing",
      "w ages",
      "w ai",
      "w oke",
      "w tf",
      "x ed",
      "x ic",
      "x emb",
      "x ible",
      "y ed",
      "y ing",
      "y friend",
      "y ikes",
      "£ ,",
      "th ief",
      "th ole",
      "an ge",
      "an ct",
      "an no",
      "an oid",
      "an fd",
      "in ation",
      "in si",
      "in state",
      "in activate",
      "in done",
      "in putting",
      "in case",
      "in validate",
      "in adver",
      "in sufficient",
      "in san",
      "re fer",
      "re charged",
      "re cur",
      "re depos",
      "re order",
      "re sent",
      "re vis",
      "re mor",
      "re activated",
      "re activation",
      "re located",
      "re tro",
      "re union",
      "re ference",
      "re applying",
      "re pan",
      "re tract",
      "re vere",
      "re stored",
      "re moving",
      "re route",
      "re bate",
      "re jections",
      "re plen",
      "re vok",
      "re instate",
      "to t",
      "to ff",
      "to uched",
      "my ster",
      "ou ses",
      "at re",
      "at ro",
      "at ting",
      "at form",
      "at ient",
      "at tle",
      "at ible",
      "at tacked",
      "at tended",
      "the ft",
      "the atre",
      "ar m",
      "ar ch",
      "ar ies",
      "ar ran",
      "ed s",
      "is ted",
      "is cated",
      "en try",
      "en sed",
      "en ced",
      "en gl",
      "en jo",
      "wh ill",
      "as action",
      "as ses",
      "er k",
      "er card",
      "it ing",
      "it al",
      "it ut",
      "it ally",
      "it ive",
      "or de",
      "or ations",
      "or gan",
      "ch and",
      "ch age",
      "ch aged",
      "ch atting",
      "tr ad",
      "tr ick",
      "tr ue",
      "ac ount",
      "ac ting",
      "ac tory",
      "ow e",
      "ow ed",
      "can ge",
      "can ad",
      "do s",
      "me t",
      "me ant",
      "me sses",
      "le ction",
      "le aving",
      "le git",
      "le eds",
      "tran asaction",
      "ent p",
      "ent y",
      "ent ail",
      "ent ial",
      "ent ially",
      "trans ation",
      "trans por",
      "trans ition",
      "trans act",
      "trans ger",
      "for a",
      "for mu",
      "for getting",
      "for ie",
      "up setting",
      "up load",
      "ve y",
      "ve ly",
      "st ation",
      "st age",
      "st ick",
      "st ree",
      "st ip",
      "st anfd",
      "st ination",
      "st itut",
      "acc es",
      "acc pe",
      "acc om",
      "de fer",
      "de ple",
      "de te",
      "de ep",
      "de mo",
      "de ser",
      "de post",
      "de par",
      "de void",
      "de stination",
      "ount ering",
      "what so",
      "what ever",
      "se vere",
      "se attle",
      "se arch",
      "se lection",
      "be ach",
      "be known",
      "be comes",
      "be gin",
      "be lgi",
      "you re",
      "al s",
      "al ot",
      "al ds",
      "al ify",
      "al ian",
      "ha m",
      "ha ust",
      "account ing",
      "and son",
      "ex ist",
      "ex posed",
      "ex cl",
      "ex clu",
      "ex chage",
      "ex haust",
      "ne gating",
      "ne igh",
      "id iot",
      "with ing",
      "ro der",
      "ro bb",
      "ti e",
      "ti p",
      "ti vely",
      "was te",
      "ke en",
      "ke yed",
      "ce ll",
      "not ing",
      "ment ary",
      "pay ee",
      "pay met",
      "so ld",
      "so cial",
      "so ftw",
      "that s",
      "chan ce",
      "if icance",
      "there s",
      "there to",
      "char gged",
      "ate st",
      "ur ning",
      "ur gency",
      "ver fi",
      "ver sion",
      "ma d",
      "ma jor",
      "un do",
      "un know",
      "un inst",
      "un usually",
      "un satisf",
      "un explained",
      "un athor",
      "un ivers",
      "un beknown",
      "of fic",
      "ple xed",
      "ple mentary",
      "fe ar",
      "fe ll",
      "li est",
      "li zing",
      "app il",
      "am t",
      "am ong",
      "am out",
      "did int",
      "po or",
      "po ses",
      "ong ize",
      "cas t",
      "cas es",
      "cas ion",
      "cash ing",
      "go in",
      "go ign",
      "go lf",
      "us s",
      "us ion",
      "us age",
      "us ign",
      "us ive",
      "some what",
      "some hwere",
      "co at",
      "pos itive",
      "ren cy",
      "has sle",
      "ic s",
      "ic al",
      "ic ken",
      "use ful",
      "atm os",
      "wor ry",
      "out let",
      "out line",
      "out reg",
      "out standing",
      "fund ing",
      "raw als",
      "he athrow",
      "withdraw ed",
      "where ver",
      "work place",
      "ad just",
      "cur rec",
      "cur ran",
      "cur ious",
      "lin ed",
      "lin es",
      "lo an",
      "lo sing",
      "lo gged",
      "action s",
      "curren g",
      "any time",
      "any ting",
      "any were",
      "ck ing",
      "te st",
      "currenc es",
      "all t",
      "ir y",
      "rece pient",
      "recei pient",
      "ill y",
      "ter ms",
      "help ing",
      "verif action",
      "verif acation",
      "still pending",
      "dis aster",
      "dis allowed",
      "dis close",
      "dis pose",
      "dis closed",
      "dis continue",
      "dis agree",
      "dis covered",
      "dis tress",
      "dec reas",
      "dec orations",
      "red irect",
      "new bor",
      "declin es",
      "make up",
      "ri p",
      "ri er",
      "ri de",
      "ri pping",
      "ep t",
      "tu be",
      "tu tor",
      "tu esday",
      "tu gal",
      "know ing",
      "pro ceed",
      "pro bab",
      "qu ery",
      "qu alify",
      "qu icken",
      "exp ort",
      "exp ense",
      "wr ite",
      "wr ote",
      "wr iting",
      "wrong ly",
      "wrong fully",
      "cards per",
      "tra de",
      "ident y",
      "ident ly",
      "su e",
      "su ite",
      "su ited",
      "su gge",
      "time line",
      "ab ly",
      "ab ove",
      "ss ly",
      "dispos ble",
      "si a",
      "si ph",
      "si dered",
      "fin ed",
      "fin ance",
      "ess ential",
      "pur poses",
      "we lcom",
      "ph ase",
      "ph ere",
      "ph ics",
      "con do",
      "con sidered",
      "amount s",
      "fore warned",
      "com pe",
      "com mis",
      "com mon",
      "try ed",
      "back up",
      "cor respond",
      "cancel able",
      "into xic",
      "by pass",
      "ass isting",
      "ass isted",
      "happ end",
      "ght s",
      "receive s",
      "pe t",
      "debit s",
      "debit ed",
      "happen ning",
      "por tugal",
      "sup er",
      "sup plementary",
      "order s",
      "rec ongize",
      "ain ly",
      "ear ly",
      "ear liest",
      "rever sion",
      "week ly",
      "di ret",
      "our g",
      "reason able",
      "af fect",
      "af rica",
      "lock er",
      "keep ing",
      "sure ly",
      "master cards",
      "direct ed",
      "phone s",
      "after no",
      "process ors",
      "rent al",
      "credit card",
      "per tain",
      "per ative",
      "per cent",
      "per plexed",
      "pl ug",
      "pl acard",
      "pl atform",
      "pl enty",
      "pl ainly",
      "read er",
      "read ily",
      "mo m",
      "mo ene",
      "mo vie",
      "mo dated",
      "arri ving",
      "form at",
      "mis used",
      "mis took",
      "mis takes",
      "hi m",
      "king dom",
      "suppor ting",
      "block ing",
      "diffe red",
      "free zing",
      "cause s",
      "im possible",
      "im posed",
      "im properly",
      "im perative",
      "min or",
      "min ors",
      "cou rier",
      "had n",
      "cost ed",
      "cost ing",
      "cost ly",
      "couple s",
      "recogn ition",
      "allow s",
      "allow able",
      "allow ances",
      "cont anct",
      "issu ing",
      "apple pay",
      "upd ates",
      "morning s",
      "ene tered",
      "av ated",
      "ser ious",
      "inter convert",
      "inter net",
      "benefici air",
      "benefici aries",
      "ret ted",
      "ret urning",
      "every time",
      "every body",
      "thought s",
      "yester days",
      "lic ated",
      "lic ense",
      "addition ally",
      "mp ed",
      "seller s",
      "mer chand",
      "den ies",
      "error s",
      "support s",
      "dele ting",
      "sour ced",
      "sour ces",
      "mat ercard",
      "return able",
      "loc ally",
      "son s",
      "ul ations",
      "bu dget",
      "temp ted",
      "buy er",
      "american s",
      "ho e",
      "ho od",
      "ho les",
      "reject s",
      "attemp ed",
      "cond ition",
      "were d",
      "were n",
      "under stanfd",
      "person ally",
      "bo ss",
      "bo yfriend",
      "res pect",
      "clo ser",
      "author ised",
      "author izing",
      "author ization",
      "ag er",
      "ag gr",
      "wal k",
      "wal ton",
      "off sp",
      "comp atible",
      "comp licated",
      "daughter s",
      "mean time",
      "reci ved",
      "reci eved",
      "reci eving",
      "reci ept",
      "pre form",
      "pre mi",
      "sy nc",
      "fig ue",
      "system s",
      "ach ieve",
      "ga ther",
      "ref using",
      "ref urn",
      "address ed",
      "address ing",
      "travel s",
      "uct ant",
      "cry to",
      "cry ing",
      "actu ate",
      "disput able",
      "gu ards",
      "int ended",
      "sol ved",
      "supposed ly",
      "crypto cu",
      "cho sen",
      "cho osing",
      "live s",
      "ient ly",
      "stran ded",
      "stu dy",
      "atch ed",
      "appro val",
      "appro pri",
      "disc repan",
      "disc uss",
      "restric tion",
      "swift ly",
      "sa ke",
      "wouldn t",
      "discount ed",
      "sp ace",
      "sp ouses",
      "company s",
      "spec tively",
      "cu toff",
      "sw ap",
      "sw apped",
      "sw allowing",
      "typ ical",
      "fl ow",
      "post ing",
      "sud dend",
      "kind s",
      "val ued",
      "replace ments",
      "real ity",
      "expir y",
      "sub ject",
      "sub tract",
      "sub stitut",
      "clear s",
      "clear ing",
      "!! !!!",
      "ide al",
      "revert s",
      "most ly",
      "reg retted",
      "edit ing",
      "usu allt",
      "termin al",
      "termin ating",
      "sho cking",
      "good ness",
      "reflect s",
      "?? !!!",
      "ob road",
      "ob ject",
      "home ward",
      "fun ctions",
      "tri ple",
      "point s",
      "hey y",
      "par ty",
      "par anoid",
      "require s",
      "lis ting",
      "vacation ing",
      "mar ket",
      "mar ital",
      "ran ces",
      "submit ting",
      "bill ed",
      "deliver ing",
      "deliver ies",
      "18 18",
      "cl oned",
      "cl erk",
      "mal functioning",
      "row lock",
      "conver ting",
      "ci ous",
      "fro ze",
      "thank you",
      "init al",
      "advis ed",
      "import ance",
      "interbank s",
      "hand ful",
      "hand ling",
      "low er",
      "pri mary",
      "tow ards",
      "necess ity",
      "log ging",
      "shop s",
      "finish ing",
      "conf iscated",
      "conf usion",
      "concer ning",
      "permis sible",
      "frame s",
      "initi ating",
      "cul ar",
      "down sides",
      "gro ssly",
      "separ ably",
      "gl ing",
      "gl asses",
      "str ug",
      "enc ountering",
      "secur ing",
      "provid er",
      "modif ied",
      "question able",
      "follow ed",
      "calcul ate",
      "calcul ating",
      "inc ident",
      "des k",
      "des cri",
      "des crip",
      "des cription",
      "sign ed",
      "sign ificance",
      "modify ing",
      "sus pect",
      "star ter",
      "star ting",
      "imp atient",
      "confirm ing",
      "air line",
      "air port",
      "br ought",
      "hit ting",
      "om g",
      "turn ed",
      "proof ing",
      "visit ing",
      "instant ane",
      "talk ed",
      "susp end",
      "susp ended",
      "bas ic",
      "draw l",
      "draw al",
      "draw led",
      "draw ls",
      "pr int",
      "part ly",
      "repe at",
      "repor ting",
      "applic able",
      "loy al",
      "frustr ation",
      "prevent ing",
      "continu ous",
      "increas ing",
      "call ed",
      "sit es",
      "sit ting",
      "vol ume",
      "war n",
      "war ning",
      "incur red",
      "incur ring",
      "instr uct",
      "retri eving",
      "retri eval",
      "sess ion",
      "appreci ated",
      "experi ence",
      "experi enced",
      "approxim ate",
      "valid ation",
      "valid ity",
      "clu b",
      "desper ate",
      "employ ment",
      "origin al",
      "origin ate",
      "origin ation",
      "origin ating",
      "according ly",
      "oc casion",
      "zer o",
      "invol ve",
      "tranfer s",
      "tranfer ing",
      "stupid ly",
      "unexpected ly",
      "pop s",
      "display ed",
      "suf fer",
      "suf fered",
      "period ically",
      "reward s",
      "reward ing",
      "present s",
      "refuse s",
      "refill s",
      "bl ue",
      "bag s",
      "care ful",
      "eat en",
      "pat entp",
      "pat iently",
      "inqu ire",
      "inqu iry",
      "incre ments",
      "inclu de",
      "rel ates",
      "rel uctant",
      "member ship",
      "notif y",
      "notif ied",
      "unfortun ate",
      "col or",
      "throw ing",
      "throw away",
      "avoid ed",
      "respon sible",
      "guide lines",
      "switch ed",
      "regular ly",
      "manu al",
      "brit ain",
      "protect s",
      "protect ing",
      "occur s",
      "invest ment",
      ":( (",
      "bor hood",
      "ef ficient",
      "gre ater",
      "gre atest",
      "mi x",
      "smart phone",
      "recor d",
      "recor ded",
      "retail er",
      "tras fer",
      "tras nger",
      "load ed",
      "suck ed",
      "short ly",
      "direc tion",
      "plan s",
      "plan ned",
      "speed ing",
      "safe ly",
      "safe guards",
      "claim ing",
      "establish ment",
      "establish ments",
      "ridicul ously",
      "difficul t",
      "blur ring",
      "electron ically",
      "cli ent",
      "cir cus",
      "gen uin",
      "hind rances",
      "lon don",
      "mand atory",
      "na ze",
      "sli p",
      "sli ght",
      "sli pped",
      "void ed",
      "reinst ated",
      "remain ed",
      "acqu ire",
      "lead time",
      "havn t",
      "disp ense",
      "disp ensed",
      "disp atched",
      "contain s",
      "contain ed",
      "dig itally",
      "steal ing",
      "indic ate",
      "indic ated",
      "indic ates",
      "parti al",
      "parti es",
      "parti cular",
      "exorbitant ly",
      "?!! ?",
      "bab y",
      "cour se",
      "cour tries",
      "clar ity",
      "clar ify",
      "du de",
      "du al",
      "eas y",
      "eas iest",
      "equ al",
      "equ ating",
      "fli x",
      "fli ghts",
      "gr andson",
      "gir ls",
      "gir lfriend",
      "jap an",
      "jap ane",
      "la id",
      "pan icking",
      "sha re",
      "sha ll",
      "tent ly",
      "vend or",
      "vend ors",
      "wed ding",
      "wed nesday",
      "wit dh",
      "wit drawal",
      "ans wered",
      "revi ve",
      "revi eve",
      "remed ied",
      "remed ies",
      "represent ed",
      "represent ative",
      "assu red",
      "assu med",
      "assign ments",
      "belong ing",
      "alter ation",
      "exh ange",
      "exh cange",
      "net flix",
      "pleas ed",
      "pleas ure",
      "possess ion",
      "adver tise",
      "teen s",
      "teen ager",
      "exped ite",
      "exped ition",
      "final ize",
      "final ized",
      "supp ly",
      "supp lier",
      "cap s",
      "cap able",
      "resid ency",
      "resid ence",
      "obvious ly",
      "program me",
      "instit ution",
      "instit utions",
      "incentive s",
      "collect ing",
      "great ly",
      "click ed",
      "circu it",
      "circu mst",
      "gener ated",
      "gener ating",
      "reinstall ing",
      "birth day",
      "birth date",
      "anticip ate",
      "anticip ated",
      "austr alian",
      "bre ak",
      "ber tie",
      "bul k",
      "cr ad",
      "cate gor",
      "cof fee",
      "cad illy",
      "cau ght",
      "cru cial",
      "crun ch",
      "dar ned",
      "das hboard",
      "dur ham",
      "dri vers",
      "ev idently",
      "fle xible",
      "fau lty",
      "furn ish",
      "fish y",
      "faste st",
      "gp b",
      "gon na",
      "glo bally",
      "gra phics",
      "gree ce",
      "hu ge",
      "join ed",
      "lu xemb",
      "lou d",
      "lif e",
      "maste card",
      "mcdon alds",
      "nan dos",
      "pu mped",
      "pot entially",
      "pes os",
      "pun ched",
      "pic cadilly",
      "paren ts",
      "passo cde",
      "pie ce",
      "sor ts",
      "sur vey",
      "sun glasses",
      "swe ar",
      "smo oth",
      "scho ol",
      "stric t",
      "scam med",
      "tan gible",
      "uti lizing",
      "vill a",
      "wan na",
      "wai ved",
      "thole pin",
      "anno ying",
      "insi ght",
      "indone sia",
      "inadver tently",
      "insan ely",
      "refer ted",
      "recur ring",
      "redepos ied",
      "revis ed",
      "remor se",
      "retro spectively",
      "revere ted",
      "replen ish",
      "revok ed",
      "myster ious",
      "atro cious",
      "arran ged",
      "engl ish",
      "enjo y",
      "orde re",
      "organ ization",
      "trad ed",
      "canad a",
      "transpor ted",
      "transition s",
      "formu la",
      "forie gn",
      "stree t",
      "stip ulations",
      "acces sible",
      "accpe ted",
      "accom modated",
      "defer red",
      "deple ted",
      "dete ct",
      "deep ly",
      "demo graphics",
      "deser ve",
      "depar ting",
      "whatso ever",
      "severe ly",
      "belgi um",
      "excl usive",
      "exclu ding",
      "exhaust ed",
      "neigh borhood",
      "robb ing",
      "softw are",
      "verfi y",
      "unknow ingly",
      "uninst all",
      "unsatisf actory",
      "unathor ized",
      "univers ity",
      "unbeknown st",
      "offic es",
      "appil ed",
      "amout n",
      "atmos phere",
      "outlet s",
      "outreg ous",
      "adjust ed",
      "currec y",
      "curran cy",
      "distress ed",
      "decreas ing",
      "redirect ed",
      "newbor n",
      "probab ly",
      "sugge sted",
      "siph oned",
      "welcom ed",
      "compe tent",
      "commis sion",
      "intoxic ated",
      "afterno on",
      "percent age",
      "moene y",
      "contanct less",
      "beneficiair y",
      "merchand ise",
      "aggr avated",
      "offsp ring",
      "premi um",
      "cryptocu rency",
      "study ing",
      "appropri ate",
      "discrepan cy",
      "suddend ly",
      "substitut e",
      "strug gling",
      "descri bed",
      "descrip tions",
      "instantane ous",
      "occasion s",
      "membership s",
      "genuin ely",
      "japane se",
      "witdh rawals",
      "circumst ances",
      "categor y",
      "luxemb ourg"
    ]
  }
}